­

-
--
－
−
‐
‑
‒
–
—
―
〜
์
็
่
้
๊
़
́̀̇̈
̆
̄
̧̃
͘
ׁ
͡
ʼ
̡
̣፣
ً
ٍ
َ
ِ
ْ
⃛
་
​!
！
‼
#
$
＄
%
&#124;
&#91;
&#93;
&@@
&amp;
&apos;
&apos;@@
&apos;d
&apos;ll
&apos;m
&apos;re
&apos;s
&apos;t
&apos;ve
&gt;
&quot;
(
（
)
）
*
＊
,
，
,@@
,00
,000
,5
､
、
.
．
.-
..
...
....
.....
....@@
..@@
.@@
.00
.000
.ch
.com
.com.
.de
.jpg
.m.
.net
.org
.the
。
/
:
：
;
；
?
？
@
-@@
--@@
----@@
--------@@
ཱ@@
ְ@@
ֲ@@
ִ@@
ֵ@@
ֶ@@
ַ@@
ָ@@
ֹ@@
ּ@@
ֿ@@
ׁ@@
ˈ@@
ʻ@@
ʼ@@
ˌ@@
ʾ@@
ʿ@@
ˤ@@
َ@@
ُ@@
ِ@@
ْ@@
ّ@@
［
\
］
^
_
`
`@@
``
``@@
`s
{
}
~
¡
¦
¨
¯
´
¸
¿
˙
˚
˛
˜
˝
΄
،
؛
‖
‘
’
‚
‛
“
”
„
‟
′
″
‶
‹
›
‽
¢
￠
£
¤
¥
￥
「
₠
」
₣
₤
』
【
₩
】
〔
€
฿
〕
₴
₵
₪
ː
ː@@
ॐ
।
+
⁄
=
≠
±
«
»
×
÷
∀
∃
∈
∑
√
∴
∶
∼
≈
≡
≤
≥
⋅
⌃
⌘
■
□
▪
▲
▸
▼
►
◆
◇
◈
◊
○
◎
●
◙
◦
↑
⇗
➚
→
⇒
⇢
➔
➲
↓
↧
←
↔
⇔
─
│
┌
┐
└
╚
┘
╞
┬
┴
╩
█
░
▒
§
©
¬
®
°
µ
µ@@
¶
·
･
・
…
☆
★
☎
☏
☑
☯
☺
☻
☼
♀
♂
♠
♣
♥
♦
♪
♫
✿
†
‡
•
︰
‰
※
۞
























0
۰
0,@@
0,00
0.@@
0.00
0.000
0.5
0@@
0-@@
۰@@
०@@
00
00@@
00-@@
000
000@@
001
01
01.@@
02
02.@@
03
03.@@
04
04.@@
05
05.@@
06
06.@@
07
07.@@
08
08.@@
09
09.@@
0er
0s
⅛
¼
⅓
½
⅔
¾
1
１
₁
①
¹
๑
1,@@
1,000
1,5
1.
1.@@
1.0
1.000
1.1
1.2
1.3
1.4
1.5
1@@
1-@@
۱@@
१@@
10
10,000
10.
10.@@
10.00
10.000
10@@
10-@@
100
100@@
1000
101
103
105
108
10th
11
11.
11.@@
11.00
11@@
11-@@
110
112
115
11th
12
12.
12.@@
12.00
12@@
12-@@
120
120@@
1200
124@@
125
128
12th
13
13.
13.@@
13@@
130
135
137
13th
14
14.
14.@@
14@@
14-@@
140
142
149
14th
15
15.
15.@@
15.00
15@@
15-@@
150
150@@
1500
15th
16
16.
16.@@
16@@
16-@@
160
16th
17
17.
17.@@
17@@
170
175
17th
18
18.
18.@@
18@@
18-@@
180
18th
19
19.
19.@@
19@@
190
1900
1920
1930
1930@@
1933
1939
194@@
1940
1944
1945
1947
1948
1949
195@@
1950
1950@@
1956
1957
1958
1959
196
196@@
1960
1961
1962
1963
1964
1965
1966
1967
1968
1969
197@@
1970
1970s
1971
1972
1973
1974
1975
1976
1977
1978
1979
198@@
1980
1980s
1981
1982
1983
1984
1985
1986
1987
1988
1989
199@@
1990
1990er
1990s
1991
1992
1993
1994
1995
1996
1997
1998
1999
19th
1st
2
₂
②
²
2,@@
2,5
2.
2.@@
2.0
2.1
2.2
2.4
2.5
2@@
2-@@
２@@
۲@@
20
20.
20.@@
20@@
20-@@
200
200@@
2000
2000-@@
2001
2002
2003
2004
2005
2006
2007
2007-@@
2007-2013
2008
2008-@@
2009
2010
2011
2012
2013
2014
2015
2020
2050
20th
21
21.
21.@@
21st
22
22.
22.@@
22@@
220
226@@
23
2-3
23.
23.@@
23@@
230
24
24.
24.@@
24@@
24-@@
240
24-hour
24-stunden-@@
25
25.
25@@
25-@@
250
26
26.
26@@
27
27.
27@@
28
28.
28@@
280
29
29.
29@@
2nd
3
③
³
3,@@
3,5
3.
3.@@
3.0
3.1
3.2
3.5
3@@
3-@@
30
30.
30@@
30-@@
300
300@@
3000
31
31.
32
32@@
33
33@@
34
34@@
35
35@@
350
36
36@@
360
365
37
38
38@@
39
3d
3d-@@
3rd
3-star
3-sterne-hotel
4
۴
4,@@
4.
4.@@
4@@
4-@@
40
40@@
40-@@
4-0@@
400
400@@
4000
41
42
43
44
45
45@@
450
46
47
48
48@@
49
4-star
4-sterne-hotel
4th
5
۵
५
5,@@
5,000
5.
5.@@
5.00
5.000
5@@
5-@@
۵@@
50
50@@
50-@@
5-0@@
500
500@@
5-00@@
5000
51
52
53
54
55
56
57
58
59
5th
6
6,@@
6.
6.@@
6@@
6-@@
60
60@@
6-0@@
600
600@@
61
62
63
64
64@@
65
650
66
67
68
68@@
69
6th
7
۷
7,@@
7.
7.@@
7@@
7-@@
７@@
70
70@@
700
71
72
73
74
75
750
76
77
78
79
7th
8
۸
8,@@
8.
8.@@
8@@
8-@@
80
80@@
800
800@@
81
82
83
84
85
86
87
88
89
8th
9
۹
9,@@
9.
9.@@
9.00
9@@
9-@@
９@@
९@@
90
90@@
900
9001
91
92
93
94
95
96
97
98
99
9th
Ⅱ
∞
a
ª
á
Á
à
À
â
Â
ä
Ä
ǎ
ă
Ă
ā
ã
Ã
å
Å
ą
Ą
Ǻ
ả
ạ
ɐ
ɑ
ɒ
a-
a.
a.@@
a.com
a.m.
a@@
a-@@
ª@@
á@@
Á@@
à@@
à-@@
À@@
â@@
Â@@
ä@@
Ä@@
ǎ@@
ă@@
Ă@@
ā@@
Ā@@
ã@@
Ã@@
å@@
Å@@
ą@@
Ą@@
ấ@@
ầ@@
ắ@@
ằ@@
ǟ@@
ả@@
ȃ@@
Ẳ@@
ạ@@
ậ@@
ặ@@
ɐ@@
ɑ@@
ɒ@@
a1
a3@@
a4
a4-0@@
a5-0@@
a5-00@@
aa
aal
aan
aar
aar@@
ab
ab@@
aba
aband@@
abandon
abandoned
abbas
abbau
abe
abei
abel
abel@@
aben
abend
abend@@
abendessen
abends
abent@@
abenteuer
aber
aber@@
abetes
abfahrt
abfall@@
abfälle
abge@@
abgeben
abgegeben
abgehalten
abgel@@
abgelehnt
abgeord@@
abgeordnete
abgesch@@
abgeschlossen
abgesehen
abgestimm@@
abgestimmt
abhalten
abhängen
abhängi@@
abhängig
abhängigkeit
abili
abili@@
abilität
abilities
ability
abkommen
abkommens
ablauf
able
abled
ablehnen
ablehnung
ablen
abler
ables
ablish
ablish@@
ably
abo@@
aboard
aboli@@
abolished
abolition
abonn@@
abor@@
abortion
about
above
abreise
abri
abri@@
abroad
abs@@
absatz
absch@@
abschaffung
abschließ@@
abschließen
abschließend
abschluss
abschnitt
absence
absicht
absol@@
absolut
absolute
absolutely
absoluten
absor@@
abstained
abstand
abstimmen
abstimmung
abstimmungen
abstra@@
absur@@
absurd
abteilung
abu
abu@@
abul@@
abulous
abund@@
abuse
abuses
abwechslungs@@
abwei@@
abwesenheit
abwicklung
abzielt
abzu@@
abzugeben
abzuschließen
ac
ac@@
aca
aca@@
acade@@
academ@@
academic
academy
acc@@
acceler@@
accelerate
accep@@
accept
accept@@
acceptable
acceptance
accepted
accepting
accepts
acces@@
access
access@@
accessed
accessibility
accessible
accessing
accession
accessories
acci
acci@@
accident
accidents
acco
accom@@
accomm@@
accommod@@
accommodate
accommodation
accommodations
accomodation
accomp@@
accompanied
accompany
accompanying
accomplished
accord@@
accordance
according
accordingly
accoun@@
account
accountability
accountable
accounting
accounts
accu@@
accum@@
accur@@
accuracy
accurate
accurately
accus@@
accused
ace
aces
ach
ach@@
äch@@
ache
ached
achel@@
achen
acher
aches
achiev
achiev@@
achieve
achieved
achievement
achievements
achieving
aching
acht
acht@@
ächt@@
achte
achteili@@
achten
achtet
achtung
achtungs@@
aci@@
acid
acier
acies
acio
acion
ación
aciones
acious
acity
ack
äck
ack@@
äck@@
acken
acking
acknow@@
acknowled@@
acknowledge
acknowledged
acks
aco
acon
acous@@
acp
acqu
acqu@@
acquire
acquired
acquis
acquisition
acres
acro@@
acrobat
across
act
act@@
acted
acting
action
actions
activ@@
activate
activated
active
actively
activi
activi@@
activists
activities
activity
actor
actors
acts
actu
actu@@
actual
actually
acu@@
acute
acy
ad
ad@@
ad-@@
äd@@
ada
adam
adam@@
adap@@
adapt
adaptation
adapted
adapting
adar
adas
adays
add
add@@
added
addi@@
adding
addition
additional
additionally
additives
addres@@
address
addressed
addresses
addressing
adds
ade
ade@@
aded
adel@@
adem@@
ademie
aden
äden
aden@@
adequ@@
adequate
adequately
ader
äder
ädern
aders
ades
adet
adher@@
adhere
adhes@@
adi
adi@@
adidas
ädigung
adily
ading
adise
adjacent
adju@@
adjust
adjust@@
adjusted
adjustment
adjustments
adly
administ@@
administr@@
administration
administrations
administrative
administrativen
administrator
admir@@
admire
admission
admit
admitted
ado
ado@@
adobe
adop@@
adopt
adopted
adopting
adoption
ador
ados
adres@@
adress@@
adresse
adressen
adri@@
adria
adriatic
ads
adt
adult
adults
adv@@
advan@@
advance
advanced
advances
advant@@
advantage
advantaged
advantages
adventure
adverse
adverti@@
advertising
advice
advis@@
advise
advised
advisory
advoc@@
advocate
advocates
ady
ae
Æ
æ@@
Æ@@
ael
aer@@
aes@@
aesthetic
af
af@@
äf@@
aff
aff@@
affair
affairs
affect
affected
affecting
affects
affen
affili
affili@@
affiliate
affir@@
affor@@
afford
affordable
afft
affung
afgh@@
afghan
afghan@@
afghanistan
afor@@
afraid
afri
afri@@
africa
african
afrika
afrikanische
afrikanischen
after
after@@
afternoon
afterwards
ag
ag@@
aga
again
against
age
age@@
age-@@
aged
ageing
agem@@
agement
agement@@
agement-@@
agements
agen
agen@@
agencies
agency
agenda
agent
agent@@
agents
agentur
agenturen
ager
agers
ages
aggreg@@
aggres@@
aggressive
agieren
agiert
aging
agn@@
agna
agne
agnen
agno@@
ago
ago@@
agog@@
agon@@
agr@@
agrar@@
agre@@
agree
agreed
agreement
agreements
agrees
agri
agri@@
agricultural
agriculture
ags
agt
agte
agten
agu@@
agua
ague
ägyp@@
Ägyp@@
Ägypten
ah
ah@@
äh@@
ahe
ahead
aher
ähi
ähi@@
ahl
ahl@@
ahlen
ahme
ahn
ahn@@
ähn@@
Ähn@@
ahnen
ähnlich
ähnliche
ähnlichen
ähnlicher
ähnliches
ahr
ähr
ahr@@
ähr@@
ahren
ähri@@
ahrt
ährt
ai
ai@@
aid
aid@@
aids
ail
ail@@
ailed
ailing
aille
ails
aim
aim@@
aimed
aiming
aims
ain
ain@@
aine
ained
aining
ains
ainst
aint
aints
air
air@@
air-@@
airbus
air-conditioned
airconditioning
air-conditioning
aircraft
aire
aires
airline
airlines
airo
airport
airports
airs
airways
ais
aison
aiss@@
aissance
aj@@
ak
ak@@
aka
akadem@@
akademie
akan
ake
aked
aken
aker
akes
aket
aki
akia
aking
akis
akp-@@
aks
akt
akte
akte@@
akten
akter
akter@@
akteure
akteuren
akti@@
aktien
aktien@@
aktion
aktion@@
aktionäre
aktionen
aktions@@
aktionsprogramm
aktiv
aktiv@@
aktive
aktiven
aktiver
aktivi@@
aktivieren
aktiviert
aktivität
aktivitäten
aktu
aktu@@
aktualisieren
aktualisiert
aktualität
aktuell
aktuell@@
aktuelle
aktuellen
aku@@
akvis
akzep@@
akzept@@
akzeptabel
akzeptanz
akzeptieren
akzeptiert
al
al@@
al-@@
äl@@
ala
ala@@
alan
aland
alarm
alarm@@
alarming
alb@@
alba
albania
albeit
alber@@
albert
album
alco@@
alcoho@@
alcohol
ald
alde
ale
äle
aled
alem
alen
älen
aler
äler
älern
alert
ales
alex@@
alexand@@
alexander
alg@@
algar@@
algarve
algeri
algeri@@
algeria
algerien
algorith@@
ali
ali@@
alia
alic@@
alicante
alien
alien@@
alifor@@
alig
alige
aligen
align@@
alike
aling
alis
alis@@
alisation
alisch
alischen
alise
alised
alisieren
alisiert
alisierte
alisierten
alisierung
alisierungen
alisierungs@@
alising
alism
alismus
alist
alisten
alistic
alistische
alistischen
alists
alit@@
alität
alitäten
alities
alition
ality
alive
aliz@@
alization
alize
alized
alizes
alizing
alkoh@@
alkohol
alkohol@@
all
all@@
all-@@
alla
allah
allas
alle
alle@@
alled
alleg@@
alleged
allein
alleine
allem
allen
aller
aller@@
allerdings
allery
alles
allevi@@
allgem@@
allgemein
allgemein@@
allgemeine
allgemeinem
allgemeinen
allgemeiner
alli@@
alliance
allianz
allies
alling
allisoli@@
allmählich
allo
allo@@
allocated
allocation
allow
allow@@
allowed
allowing
allows
alls
alltag
ally
ally-@@
allzu
alm@@
almost
alo@@
alog
alog@@
aloge
alogue
alogues
alone
along
alongside
alp@@
alpen
alpen@@
alpha
alphab@@
alpine
alps
alqu@@
already
als
also
alt
ält
alt@@
alta
altar
alte
alten
alter
älter
alter@@
ältere
altered
älteren
altern@@
alternative
alternativen
alternatives
alters@@
altes
älteste
altet
alth
although
alties
altitude
alto
altogether
alts@@
altstadt
altung
altungen
alty
alu
alu@@
alumini@@
aluminium
always
aly@@
alyst@@
alz@@
am
am@@
am-@@
äm@@
ama
ama@@
aman@@
amas
amat@@
amaz@@
amazing
amb@@
ambass@@
ambi
ambi@@
ambiance
ambience
ambiente
ambigu
ambigu@@
ambiguous
ambition
ambition@@
ambitions
ambitious
ambots
ame
ame@@
amed
amen
amen@@
amend
amend@@
amended
amending
amendment
amendments
amendo
ameni@@
amenities
ament
ament@@
amental
amentary
amente
amento
amentos
aments
amer
amer@@
ameri
ameri@@
americ@@
america
american
americans
amerika
amerikan@@
amerikaner
amerikanische
amerikanischen
amerikanischer
amerikas
ames
ameter
amework
ameworks
ami
ami@@
amid
amin
aming
amkeit
amm
amm@@
amme
ammen
ammen@@
ammens@@
ammer
ammer@@
ammern
ammlung
amo
amon@@
among
among@@
amongst
amor@@
amos
amoun@@
amount
amounts
amp
amp@@
ämpf@@
ämpfen
ämpft
ample
ampli@@
amps
ams
amster@@
amsterdam
amt
amtierende
amtierenden
amts@@
an
añ
án
an@@
an-@@
añ@@
án@@
än@@
Än@@
ana
analog
analy@@
analyse
analysen
analyses
analysieren
analysiert
analysis
anas
anbau
anbet@@
anbieten
anbieter
anbietet
anbindung
anc@@
ance
ance-@@
anced
ancement
ancen
ances
ancest@@
anch@@
anche
anci
anci@@
ancient
ancies
ancing
ancy
and
and@@
and-@@
-and-@@
änd@@
anda
andal
andal@@
andalu@@
andau@@
ande
ände
anded
anden
änden
ander
änder
ander@@
änder@@
andere
anderem
anderen
anderer
andererseits
anderes
andern
ändern
andernfalls
anders
anders@@
anderswo
ändert
änderung
Änderung
änderungen
Änderungen
Änderungs@@
andes
andi@@
andin@@
andinavi@@
anding
ando
andor@@
andr@@
andre@@
andrea
andreas
andrew
andro@@
ands
ane
äne
ane@@
anen
änen
anen@@
aneous
aner
anerk@@
anerkannt
anerkannte
anerkannten
anerkennen
anerkennt
anerkennung
anese
anf@@
anfän@@
anfang
anfänger
anforderung
anforderungen
anfrage
anfragen
ang
ang@@
angabe
angaben
ange
änge
ange@@
angeb@@
angeben
angeblich
angebo@@
angebot
angebot@@
angebote
angeboten
angebotenen
angebracht
angefangen
angeführt
angegangen
angegeben
angegebenen
angegriffen
angehen
angehörigen
angehört
angeht
angekommen
angekün@@
angekündigt
angel@@
angela
angelegenheiten
angelegt
angeles
angem@@
angemeldet
angemess@@
angemessen
angemessene
angemessenen
angemessener
angen
ängen
angen@@
angenehm
angenehme
angenehmen
angenen
angenommen
angepasst
anger
änger
anger@@
änger@@
angers
anges@@
angeschlossen
angesehen
angesichts
angesprochen
angesprochenen
angest@@
angestellten
angewand@@
angewandt
angewendet
angewiesen
angezeigt
angezogen
angle
ango
angola
angrenz@@
angriff
angriffe
angs@@
angsh@@
angst
angt
ängt
anhal@@
anhaltende
anhaltenden
anhän@@
anhand
anhang
anhänger
anhörung
ani
ani@@
ania
anian
anien
anies
anik
anim@@
animal
animals
animation
aning
anische
anischen
anischer
anism
anium
ank
ank@@
ankar@@
ankara
anke
anken
ankommen
ankommt
anks
ankün@@
ankündigung
ankunft
anla@@
anlage
anlage@@
anlagen
anlass
anlässlich
anleihen
anleitung
anliegen
anmel@@
anmelden
anmeldung
anmerken
anmerkung
anmerkungen
ann
ann@@
anna
annäh@@
annäherung
annahme
annan
anne
annehm@@
annehmen
annehmlichkeiten
annen
anner
annex
anni
anni@@
anning
anniversary
anno@@
announ@@
announc@@
announce
announced
announcement
annt
annte
annten
annter
annual
annually
ano
ano@@
anol
anon
anony@@
anonymous
anos
another
anpass@@
anpassen
anpassung
anpassungen
anre@@
anreg@@
anregungen
anrei@@
anreise
anreize
ans
ans@@
ansa
ansä@@
ansatz
ansätze
ansatzes
ansch@@
anschau@@
anschauen
anscheinend
anschließ@@
anschließen
anschließend
anschluss
ansehen
ansicht
ansichten
ansonsten
ansprech@@
ansprechen
ansprechpartner
anspru@@
anspruch
ansprüche
ansprüchen
anspruchs@@
anspruchsvolle
anspruchsvollen
anst@@
anstatt
anstelle
anstieg
anstrengungen
answer
answer@@
answered
answers
ant
ant@@
ant-@@
anta
anta@@
antas@@
ante
anted
anteil
anten
anten@@
anter
antes
anth@@
anti
anti@@
anti-@@
antibio@@
anticip@@
anticipated
antiken
anting
antique
antivi@@
antly
anto
anton
antoni@@
antonio
antrag
anträge
antrieb@@
ants
antwor@@
antwort
antworten
antwortet
anweisungen
anwen@@
anwender
anwendung
anwendungen
anwendungs@@
anwendungsbereich
anwes@@
anwesend
anx@@
any
any@@
anya
anybody
anying
anymore
anyone
anything
anyway
anywhere
anz
anz@@
anza
anzahl
anzahlung
anzei@@
anzeige
anzeigen
anzen
anzu@@
anzubieten
anzugehen
anzunehmen
anzupassen
anzusehen
anzuwenden
anzuzeigen
ao
ão
ao@@
ap
ap@@
apa@@
apache
apar@@
apart
apart@@
aparthotel
apartment
apartments
apel
aper
apers
apest
aph@@
api
api@@
apo@@
apor@@
apos@@
app
app@@
appalling
appar@@
apparent
apparently
appart@@
appartement
appartements
appe
appe@@
appeal
appealing
appear
appear@@
appearance
appeared
appearing
appears
apped
appell
appen
apping
appl@@
applause
apple
applic@@
applicable
applicant
applicants
application
applications
applied
applies
applik@@
applikation
applikationen
apply
applying
appoint
appoint@@
appointed
appointing
appointment
appreci
appreci@@
appreciate
appreciated
appreciation
appro@@
approach
approaches
approaching
appropri@@
appropriate
appropriately
appropriations
approval
approve
approved
approx
approxim@@
approximately
apri
apri@@
april
aps
aqu
aqu@@
äqu@@
ar
är
ar@@
ar-@@
är@@
Är@@
ara
Ära
ara@@
arab
arab@@
arabia
arabien
arabischen
arafat
aran
arbei@@
arbeit
arbeit@@
arbeiten
arbeitenden
arbeiter
arbeiter@@
arbeitet
arbeitete
arbeiteten
arbeitgeber
arbeitnehmer
arbeitnehmer@@
arbeitnehmern
arbeits@@
arbeitsgruppe
arbeitslosen@@
arbeitslosigkeit
arbeitsmarkt
arbeitsp@@
arbeitsplat@@
arbeitsplatz
arbeitsplätze
arbeitsplätzen
arbeitsweise
arbeitung
arbeitungs@@
arbit@@
arbitr@@
arbitrary
arc
arc@@
arch
arch@@
archä@@
archae@@
archaeological
archer
arches
archi@@
archie
archit@@
architec@@
architect
architects
architectural
architecture
architek@@
architekt@@
architekten
architektur
archiv
archive
archives
arctic
ard
ard@@
ard-@@
ardi@@
ardin
arding
ardis@@
ardo
ardous
ards
are
äre
are@@
area
areas
ared
aren
ären
arena
ärer
ares
äres
argent@@
argentina
argentinien
argu@@
argue
argued
argum@@
argument
argumente
arguments
ari
ari@@
aria
arian
arians
ariat
arib@@
arien
arier
aries
arily
arin
aring
ario
arios
arious
aris
arische
arischen
arise
arises
arising
arities
arity
arium
ark
ark@@
ärk@@
ärkt
ärkte
arly
arm
ärm
arm@@
ärm@@
armament
arme
armed
armee
armen
armen@@
arming
arms
armut
army
arn@@
aro
aro@@
arom@@
arote
around
arr@@
arran@@
arrange
arranged
arrangement
arrangements
array
arres@@
arrest
arrested
arri
arri@@
arrival
arrive
arrived
arriving
arro@@
ars
art
art.
art@@
arta
arte
arten
ärten
arten@@
artet
arti@@
artic@@
article
articles
artier
artificial
artig
artige
artigen
artik@@
artikel
artikeln
artikels
artist
artistic
artists
arts
ary
arz@@
ärz@@
arznei@@
arzneimittel
arzt
Ärzte
as
ás
as@@
as-@@
äs@@
asa
asch@@
äsche
ascript
ase
ase@@
asean
ased
asen
aser
ases
ash
ash@@
ashed
ashton
asi
asi@@
asia
asian
asiatischen
aside
asien
asing
asion
asis
ask
ask@@
asked
asking
asks
asmus
asonic
asp
asp@@
aspect
aspects
aspekt
aspekte
aspekten
aspir@@
aspirations
asps
ass
ass@@
assass@@
asse
assemb@@
assembly
assen
assen@@
asser
asser@@
asses
assess
assess@@
assessed
assessing
assessment
assessments
asset
assets
assi
assi@@
assign@@
assigned
assis
assist
assist@@
assistance
assisted
asso
asso@@
associ
associ@@
associated
association
associations
assozi@@
assu
assu@@
assum@@
assume
assumed
assumes
assuming
assumption
assung
assungen
assurance
assure
assured
ast
ast@@
ast-@@
äst@@
asten
aster
astern
asters
astery
ästhe@@
astic
asting
aston@@
astri
astri@@
astrium
astro@@
astronom@@
asts
asty
asur
asy@@
asyl
asyl@@
asylum
asymm@@
at
ät
at@@
at-@@
ät@@
ata
atar
ate
äte
ate@@
ate-@@
ated
ateg@@
ategorie
ategorien
ately
atem@@
atemberau@@
atemberaubenden
aten
äten
aten@@
ater
äter
ater@@
aterie
aters
ates
ateur
ateway
ath
ath@@
athan
athed@@
athedral
athen
athens
ather
athon
aths
ati
ati@@
atic
atically
atico
atics
atie
aties
ätigkeit
atik
atile
atility
atin
atin@@
ating
ation
ation@@
ation-@@
ational
ationale
ationalen
ationen
ations
ations@@
atis@@
atisch
atische
atischen
atischer
atisi@@
atisierung
atisti
atisti@@
ativ
ativ@@
ative
atively
ativen
ativer
atives
ativity
atlan@@
atlantic
atlantik
atmosp
atmosp@@
atmosphäre
atmosphere
ato
ato@@
atom
atom@@
aton
ator
ator@@
atoren
atories
atorium
ators
atory
atri@@
atro@@
ats
ats@@
att
att@@
attach
attach@@
attached
attack
attack@@
attacked
attacks
atte
attemp@@
attempt
attempted
attempting
attempts
atten
ätten
atten@@
attend
attend@@
attended
attending
attention
attentive
atter@@
attered
attet
atti@@
attitude
attitudes
attle
attrac@@
attract
attracted
attraction
attractions
attractive
attrak@@
attraktionen
attraktiv
attraktive
attraktiven
attri
attri@@
attributed
attributes
atum
atur
atur@@
ature
aturen
atures
atus
aty
atz
atz@@
ätz@@
ätze
ätzen
au
äu
au@@
äu@@
Äu@@
auber@@
auc@@
auch
auction
aud
audi@@
audience
audio
audio@@
audio-@@
audiovisu@@
audiovisual
audit
auditors
auen
auer
auer@@
auern
auf
auf@@
aufbau
aufbau@@
aufbauen
äufe
aufeinander
aufen
aufenth@@
aufenthal@@
aufenthalt
aufenthalts@@
äufer
aufer@@
auferlegt
äufers
auff@@
auffassung
aufforderung
aufgabe
aufgaben
aufgaben@@
aufge@@
aufgebaut
aufgeben
aufgefordert
aufgeführt
aufgeführten
aufgegeben
aufgegriffen
aufgehoben
aufgenommen
aufgerufen
aufgestellt
aufgeteilt
aufgrund
aufhalten
aufhebung
aufhin
aufhören
aufklärung
aufkommen
auflage
auflagen
auflösung
aufmerks@@
aufmerksam
aufmerksamkeit
aufnahme
aufnahme@@
aufnahmen
aufnehmen
aufpreis
aufre@@
aufrecht
aufrecht@@
aufruf
aufrufen
aufs
aufs@@
aufschwung
aufsicht
aufsichts@@
aufstellung
aufstieg
auft
äuft
aufteilung
auftrag
auftrag@@
aufträge
auftraggeber
auftrags@@
auftreten
auftritt
aufw@@
aufwand
aufweisen
aufweist
aufzu@@
aufzubauen
aufzug
aufzunehmen
aug@@
auge
augen
augen@@
augenblick
augenmerk
augu@@
august
august@@
aul@@
ault
aults
aum
äum@@
äume
äumen
äumt
aup@@
aupt@@
aur@@
aus
aus@@
äus@@
ausarbeitung
ausbau
ausbeut@@
ausbeutung
ausbildung
ausbildungs@@
ausblick
ausbruch
ausch
auschecken
ausdehnung
ausdruck
ausdrück@@
ausdrücklich
ausdrückliche
ause
äuse
auseinander
auseinander@@
auseinandersetzung
auseinandersetzungen
auseln
äuser
äusern
auses
ausfahrt
ausfallen
ausflug
ausflug@@
ausflüge
ausfuhr@@
ausführ@@
ausführen
ausführlich
ausführliche
ausführung
ausführungen
ausgab@@
ausgabe
ausgaben
ausgang
ausgang@@
ausgangs@@
ausgangspunkt
ausge@@
ausgearbeitet
ausgebaut
ausgeben
ausgebil@@
ausgedeh@@
ausgedrückt
ausgeführt
ausgegangen
ausgegeben
ausgehen
ausgehend
ausgeht
ausgelegt
ausgeliefert
ausgelöst
ausgenommen
ausgeprä@@
ausger@@
ausgerichtet
ausgerüstet
ausgesch@@
ausgeschlossen
ausgesetzt
ausgesprochen
ausgest@@
ausgestatt@@
ausgestattet
ausgestattete
ausgestatteten
ausgestellt
ausgeübt
ausgewäh@@
ausgewählt
ausgewählte
ausgewählten
ausgeweitet
ausgewogen
ausgewogene
ausgezeich@@
ausgezeichnet
ausgezeichnete
ausgezeichneten
ausgleich
ausgleich@@
ausgrenzung
aush@@
auskunft
auslän@@
ausland
ausländische
ausländischen
auslands@@
auslegung
auslieferung
auslösen
ausmachen
ausmacht
ausmaß
ausnah@@
ausnahme
ausnahmen
ausreichen
ausreichen@@
ausreichend
ausreichende
ausrichtung
ausrüstung
auß@@
äuß@@
aussage
aussagen
aussch@@
ausschlag@@
ausschließ@@
ausschließlich
ausschuss
ausschüsse
ausschusses
aussehen
außen
außen@@
außenminister
außenpolitik
außer
ausser@@
äußer@@
Äußer@@
außerdem
außergewöhn@@
außergewöhnlich
außergewöhnliche
außergewöhnlichen
außerhalb
äußern
außerord@@
außerordentlich
äußerst
äußerster
äußert
äußerung
Äußerungen
aussicht
aussichten
aussieht
aussprache
aussprechen
ausstattung
aussteller
ausstellung
ausstellungen
ausstellungs@@
aust
austau@@
austausch
austausch@@
austerity
austr@@
australi@@
australia
australian
australien
austri@@
austria
austrian
ausübung
auswahl
auswahl@@
auswählen
auswärtige
auswei@@
ausweitung
auswertung
auswirkungen
auszeichnung
auszu@@
auszuführen
auszur@@
auszuschließen
auszuüben
aut
aut@@
auth@@
authen@@
authenti@@
authentic
authentic@@
author
author@@
authori@@
authorisation
authorised
authorit@@
authoritarian
authorities
authority
authorized
authors
auto
auto@@
autob@@
autobahn
autobahn@@
autom@@
automated
automaten
automati@@
automatic
automatically
automation
automatisch
automatische
automatischen
automobil@@
automobile
automobilindustrie
automotive
autonom@@
autonomie
autonomous
autonomy
autor
autor@@
autoren
autorit@@
autorität
autos
autover@@
autovermietung
autumn
aux
av
av@@
ava
avail@@
availability
available
ave
avec
aved
aven@@
avenue
aver
aver@@
average
aves
avi
avi@@
aviation
avier
avig@@
aving
avo@@
avoi@@
avoid
avoided
avoiding
aw
aw@@
awa
awa@@
await
awaiting
awaits
awar@@
award
awarded
awards
aware
awareness
away
ax
ax@@
axis
ay
ay@@
ay-@@
aya
ayed
aying
ays
az
az@@
azer@@
azi
azi@@
azione
azur
azz
azz@@
azza
azzo
b
b.
b.@@
b@@
b-@@
-b@@
ｂ@@
ḇ@@
b5-0@@
ba
ba@@
bab@@
babwe
baby
baby@@
bac@@
bach
back
back@@
backdrop
backed
background
backing
backs
backup
bacter@@
bad
bad@@
bade@@
baden
badewanne
badezimmer
badly
bae
bag
bag@@
baggage
bags
bah@@
bahn
bahn@@
bahnen
bahnhof
bahrain
bai@@
baj@@
bak@@
bal
bal@@
balance
balanced
balances
balancing
balcon@@
balconies
balcony
bald
bali
balk@@
balkan
balkan@@
balkans
balkon
ball
ball@@
balls
baltic
ban
ban@@
banana
bananen@@
band
band@@
bandbreite
bands
bang@@
bangemann
bangkok
banglad@@
bank
bank@@
banken
banken@@
banking
banks
bann@@
banned
banquet
bar
bar@@
barack
barbar@@
barcel@@
barcelon@@
barcelona
bare
barely
barem
baren
barer
bares
bark@@
barkeit
barnier
baro@@
barón
baron@@
baroness
barri@@
barrier
barriers
barro@@
barroso
bars
bas
bas@@
base
based
-based
basel
bases
basi
basi@@
basic
basically
basieren
basierend
basiert
basierte
basierten
basin
basis
basis@@
basque
bass
bass@@
bat
bat@@
bath
bath@@
bathing
bathroom
bathrooms
baths
batt@@
batter@@
batteries
battery
battle
bau
bau@@
bauen
bauer
bauern@@
baum
baum@@
bäume
baus
baut
baute
bauten
bav@@
bavaria
bavarian
bay
bay@@
bayern
bb@@
bbc
bc
be
be@@
beabsich@@
beabsichtigt
beach
beaches
beacht@@
beachten
beachtet
beachtung
beam@@
beamte
beamten
bean
bean@@
beanspru@@
beantragt
beantwor@@
beantworten
beantwortet
beantwortung
bear
bear@@
bearbei@@
bearbeiten
bearbeitet
bearbeitung
bearbeitungs@@
bearing
bears
beat
beau@@
beauf@@
beauftrag@@
beauftragt
beauftragte
beauftragten
beauti
beauti@@
beautiful
beautifully
beauty
bec
bec@@
became
because
beck
becken
becom@@
become
becomes
becoming
bed
bed@@
beda@@
bedanken
bedar@@
bedarf
bedau@@
bedauer@@
bedauern
bedded
bedenken
bedeut@@
bedeuten
bedeutend
bedeutende
bedeutenden
bedeutender
bedeutendsten
bedeutet
bedeutung
bedien@@
bedienen
bedient
bedienung
beding@@
bedingt
bedingte
bedingten
bedingung
bedingungen
bedro@@
bedroh@@
bedroht
bedrohung
bedrohungen
bedroom
bedrooms
beds
bedürf@@
bedürfen
bedürfnisse
bedürfnissen
beef
beein@@
beeindruck@@
beeindruckende
beeindruckenden
beeindruckt
beeinflus@@
beeinflussen
beeinflusst
beeinträchtigt
been
beenden
beendet
beendigung
beer
bef@@
befand
befassen
befasst
befeh@@
befehl
befes@@
befin@@
befinden
befindet
befindlichen
before
befra@@
befrei@@
befreien
befreit
befreiung
befri@@
befrist@@
befu@@
befür@@
befürchtungen
befürwor@@
beg@@
begab
began
begangen
begann
begannen
bege@@
begeben
begegn@@
begegnen
begehen
begeist@@
begeistern
begeistert
begeisterung
begin
beginn
beginn@@
beginnen
beginners
beginning
beginnt
begins
beglei@@
begleiten
begleitet
begleitung
beglück@@
beglückwünsche
begonnen
begreifen
begren@@
begrenzt
begrenzte
begrenzten
begrenzung
begriff
begriffe
begriffen
begrü@@
begrün@@
begründet
begründung
begrüß@@
begrüße
begrüßen
begrüßt
begun
begüns@@
beh
beh@@
behal@@
behalf
behält
behalten
behand@@
behandeln
behandelt
behandlung
behandlungs@@
behaupten
behauptet
behauptung
behavi@@
behavior
behaviour
behei@@
beher@@
beherber@@
beherbergt
beherr@@
beherrscht
behil@@
behilflich
behind
behinder@@
behindern
behindert
behinderten@@
behindertenfreundliche
behinderung
behinderungen
behoben
behold
behörde
behörden
bei
bei@@
beibehalten
beibehaltung
beide
beiden
beider
beides
beifall
beigetragen
beijing
beim
bein@@
beinahe
being
beings
beinhalten
beinhaltet
beispiel
beispiel@@
beispiele
beispielsweise
beit
beitrag
beiträge
beitragen
beitritt
beizu@@
beizutragen
bek@@
bekam
bekämpfen
bekämpft
bekämpfung
bekann@@
bekannt
bekannte
bekannten
bekannter
bekanntesten
bekanntlich
bekistan
bekommen
bekommt
bekräf@@
bel
bel@@
belange
belangt
belar@@
belarus
belast@@
belastet
belastung
belastungen
belebung
belegen
belegt
beleu@@
belgi@@
belgian
belgien
belgium
belieb@@
beliebig
beliebige
beliebigen
beliebt
beliebte
beliebten
beliebtesten
belief
belief@@
believ
believ@@
believe
believed
believes
bell@@
bella
beln
beloh@@
belong
belong@@
belonging
belongs
below
bels
belt
bem@@
bemer@@
bemerk@@
bemerken
bemerkt
bemerkung
bemerkungen
bemüh@@
bemühen
bemüht
bemühungen
ben
ben@@
-ben@@
benach@@
benachbar@@
benachbarten
benachrichtigt
benachteili@@
benannt
bench@@
bend
bende
benden
bene
benef@@
benefici@@
beneficial
beneficiaries
benefit
benefits
benen
benennen
benj@@
benjamin
benö@@
benötigen
benötigt
benötigte
benötigten
benutz@@
benutzen
benutzer
benutzer@@
benutzern
benutzern@@
benutzt
benutzung
-benz
benz@@
beob@@
beobachten
beobachter
beobachtet
beobachtung
bequ@@
bequem
bequeme
bequemen
ber
ber@@
ber-@@
berat@@
beraten
berater
beratung
beratungen
beratungs@@
berau@@
berech@@
berechn@@
berechnen
berechnet
berechnung
berechtigt
berechtigte
berechtigten
berechtigung
berei@@
bereich
bereiche
bereichen
bereichs
bereit
bereit@@
bereiten
bereitet
bereitgestellt
bereitgestellten
bereits
bereitschaft
bereitstellen
bereitstellung
bereitung
berg
berg@@
berge
bergen
berger
beri@@
berich@@
bericht
berichte
berichten
berichterstat@@
berichterstattung
berichtet
berlin
berlin@@
berliner
berlus@@
berlusconi
bern
bern@@
berry
bers
bert
beru@@
berücksich@@
berücksichtigen
berücksichtigt
berücksichtigung
beruf
beruf@@
berufen
berufliche
beruflichen
berufs@@
beruhen
beruhi@@
berühm@@
berühmt
berühmte
berühmten
berührt
beruht
bes
bes@@
besagt
besatz@@
besatzung
besch@@
beschä@@
beschädigt
beschäf@@
beschaff@@
beschäftigen
beschäftigt
beschäftigten
beschäftigung
beschäftigungs@@
beschei@@
beschl@@
beschleun@@
beschließen
beschlossen
beschluss
beschluss@@
beschlüsse
beschränken
beschränkt
beschränkung
beschränkungen
beschreiben
beschreibt
beschreibung
beschrieben
beschriebenen
beschwerden
besei@@
beseitigen
beseitigt
beseitigung
besetz@@
besetzt
besetzten
besetzung
besi@@
besich@@
besichtigen
beside
besides
besit@@
besitz
besitz@@
besitzen
besitzer
besitzt
besonder@@
besondere
besonderen
besonderer
besonderes
besonderheiten
besonders
besor@@
besorgnis
bespre@@
besser
besser@@
bessere
besseren
besseres
best
best@@
best-@@
bestä@@
bestän@@
bestand
bestand@@
bestände
bestanden
bestandteil
bestandteile
bestätigen
bestätigt
bestätigung
beste
besteh@@
bestehen
bestehend
bestehende
bestehenden
besteht
bestell@@
bestellen
besteller
bestellt
bestellung
bestellungen
besten
bestens
bester
bestes
besteuerung
besti@@
besticht
bestimm@@
bestimmen
bestimmt
bestimmte
bestimmten
bestimmter
bestimmtes
bestimmung
bestimmungen
bestmögliche
bestraft
bestrebt
bestrebungen
besu@@
besuch
besuchen
besucher
besucher@@
besuchern
besucht
besuchte
bet
bet@@
beta
betä@@
beteili@@
beteiligen
beteiligt
beteiligten
beteiligung
beton@@
betonen
betont
betra@@
beträ@@
betracht
betrachten
betrachtet
beträchtliche
beträchtlichen
betrag
beträge
betragen
beträgt
betre@@
betreffen
betreffend
betreffende
betreffenden
betreiben
betreiber
betreibt
betreut
betreuung
betrieb
betrieb@@
betriebe
betrieben
betriebs@@
betriebssystem
betrifft
betroffen
betroffenen
betru@@
betrug
betrugs@@
bets
bett
betten
better
betting
bettw@@
bettwäsche
bettzimmer
between
beu@@
beugung
beunruhi@@
beur@@
beurteilen
beurteilung
beut@@
bev
bev@@
beverages
bevölk@@
bevölkerung
bevor
bevor@@
bevorstehenden
bevorzu@@
bevorzugen
bevorzugt
bew@@
bewaff@@
bewaffn@@
bewaffneten
bewähr@@
bewahren
bewahrt
bewährten
bewältigen
beweg@@
bewegen
bewegt
bewegung
bewegungen
bewegungs@@
beweis
beweise
beweisen
beweist
bewer@@
bewerten
bewertet
bewertung
bewertungen
bewiesen
bewirken
bewirkt
bewohner
bewu@@
bewundern
bewus@@
bewusst
bewusstsein
bey
beyond
bezahl@@
bezahlen
bezahlt
bezahlung
bezauber@@
bezeichnen
bezeichnet
bezeichnung
bezieh
bezieh@@
beziehe
beziehen
bezieht
beziehung
beziehungen
beziehungsweise
bezir@@
bezirk
bezo@@
bezogen
bezogene
bezogenen
bezü@@
bezug
bezug@@
bezüglich
bg
bi
bi@@
bia
bian
bibi@@
biblioth@@
bibliothek
bibliotheken
bicy@@
bicycle
bid
biegen
bien
bier
bier@@
bieren
biet@@
bieten
bieter
bietern
bietet
big
big@@
bigen
bigger
biggest
bike
bikes
biking
bil
bil@@
bilanz
bilater@@
bilateral
bilaterale
bild
bild@@
bilden
bilder
bilder@@
bildern
bildes
bildet
bildschir@@
bildschirm
bildung
bildungen
bildungs@@
bile
bili
bili@@
bility
bill
bill@@
billi
billi@@
billigen
billiger
billion
billions
bin
bin@@
binary
binden
binding
bindung
bing
binnen@@
bio@@
biodiversity
biofuels
biok@@
biological
biologische
biologischen
biom@@
biotechn@@
biotechnologie
biotechnology
bip
bir@@
bird
birds
birgt
birma
birmingham
birth
birth@@
birthday
bis
bis@@
bisch@@
bish@@
bished
bisher
bisherige
bisherigen
bislang
bisschen
bist
bisweilen
bit
bit@@
bited
bition
bitions
bits
bitt@@
bitte
bitten
bitter
bizar@@
bizarre
bl@@
bla@@
blä@@
black
black@@
blair
blame
blan@@
blas
blas@@
blatt
blau@@
blauen
ble
ble@@
blei
blei@@
bleiben
bleibt
blend
bler
bles
bli@@
blich
bliche
blichen
blicherweise
blick
blick@@
blicke
blicken
blickt
blieb
blieben
blin@@
blind
bling
blioth@@
blizz@@
blizzard
blo@@
block
block@@
blocked
blockiert
blocking
blocks
blog
blog@@
bloo@@
blood
bloß
blow
blu
blu@@
blü@@
blue
bluet@@
bluetooth
blüh@@
blumen
blut
blut@@
bly
bm@@
bmw
bo
bö
bo@@
bö@@
boa
boar@@
board
boarding
boards
boasts
boat
boats
bob@@
bod@@
boden
boden@@
bodies
body
böge
boh
boh@@
bol@@
bold
boli@@
bolkest@@
bolkestein
bolog@@
bologna
bom@@
bomb
bon
bon@@
bond
bonds
bone
bonn
bonus
bonus@@
boo@@
book
book@@
booked
booking
booking.com
bookings
books
boom
boost
boot
boot@@
booth
bor
bor@@
bör@@
bord
border
borders
borg
born
borne
börse
börsen@@
bos@@
bös@@
bosni@@
bosnia
bosnien
boston
bot
bot@@
boten
both
botschaft
botschaften
botschafter
bott@@
bottle
bottom
bou@@
bought
bound
bound@@
boundaries
bour
bour@@
bourg
bourhood
boutiqu@@
boutique
bow
bow@@
box
box@@
boxes
boy
boy@@
boys
br@@
bra
bra@@
brach
brachte
brachten
brain
bran@@
branch
branche
branchen
branchen@@
branches
brand
brand@@
brands
brary
brasili@@
brasilien
bration
brau@@
bräu@@
brauch
brauch@@
brauchen
braucht
brava
brazi@@
brazil
brazilian
bre
bre@@
brea@@
breach
bread
break
break@@
breakfast
breaking
breaks
breast
breath@@
breathtaking
brechen
bree@@
breeding
brei
brei@@
breit
breit@@
breite
breiten
breiter
breites
breitung
brem@@
bremen
brenn@@
bres
bres@@
bri
bri@@
bricht
bridge
bridges
brief
brief@@
briefly
brigh@@
bright
brilli@@
brilliant
brin@@
bring
bring@@
bringen
bringing
brings
bringt
bringung
bristol
brit@@
britain
britan@@
britische
britischen
british
britt@@
bro@@
broad
broad@@
broadband
broadcast
broadcasting
broader
broadly
broch@@
brochure
brok
broke
broken
bron@@
brosch@@
brot
brother
brothers
brought
brow@@
brown
browser
bru
brü
bru@@
brü@@
bruch
brücke
bruder
brüder
brun@@
brunnen
brush
brüssel
brussels
brust@@
brut@@
brutal
brutto@@
bruttoin@@
bry@@
bs
bs@@
bsd
bse
bse-@@
bsp
bsp@@
bt
bu
bü
bu@@
bü@@
bub@@
buch
buch@@
buchen
bücher
büchern
buchs
buchst@@
buchstaben
bucht
buchten
buchung
buchungen
buchungs@@
bud@@
budapest
budd@@
buddh@@
budget
budgetary
budgets
budsman
buenos
buff@@
buffer
buffet
bug
bug@@
bügel@@
bugs
bugtraq
büh@@
bühne
buil@@
build
building
buildings
built
built-in
bul
bul@@
bulg@@
bulgar@@
bulgaria
bulgarian
bulgarien
bulk
bun@@
bün@@
bunal
bund@@
bünd@@
bundes@@
bundesrepublik
bung
bungalows
bungen
bungs@@
bur@@
bür@@
burden
burdens
bure@@
bureau
bureauc@@
bureaucracy
bureaucratic
burg
burg@@
burg-@@
burger
bürger
bürger@@
bürgerinnen
bürgerlichen
bürgern
bürgerrechte
burgh
burma
burn
burning
büro
büro@@
bürokrati@@
büros
bury
bus
bus@@
buses
bush
busin@@
business
business@@
business-@@
businesses
busse
bust@@
busy
but
but@@
bute
buted
butes
bution
butions
button
buttons
buy
buyer
buying
by
by@@
by-@@
byl
byr@@
bzw.
bzw@@
c
℃
ć
Ć
ĉ
č
Č
ç
Ç
ɔ
c.
c.@@
c@@
c-@@
ć@@
Ć@@
Ċ@@
ĉ@@
Ĉ@@
č@@
Č@@
ç@@
Ç@@
ɔ@@
Ɔ@@
ɕ@@
c5-0@@
ca
ça
ca.
ca@@
cab@@
cabin
cable
cache
cad
cad@@
cadi@@
cadiz
caf@@
café
cafes
cafés
cairo
cal
cal@@
cala
calcul@@
calculated
calculation
calculations
calendar
cali@@
califor@@
california
call
call@@
called
calling
calls
cally
calm
cam
cam@@
cambo@@
cambridge
came
camera
cameras
camp
camp@@
campa@@
campaign
campaign@@
campaigns
camping
camping@@
campingplatz
campo
camps
can
can@@
canada
canadi@@
canadian
canal
canaria
canary
canc@@
cancel
cancell@@
cancellation
cancelled
cancer
cancún
cand@@
candi@@
candidate
candidates
cane
cann@@
cannes
cannot
canon
cans
cant@@
cany
cany@@
ção
cap
cap@@
capabilities
capability
capable
capaci@@
capacities
capacity
cape
capit@@
capita
capital
capitalism
capitalist
capp@@
captain
capture
captured
car
car@@
carbon
card
card@@
cardassi@@
cardi@@
cardiff
cards
care
care@@
career
careful
carefully
cargo
carib@@
caribbean
carl
carl@@
carlo
carlos
carmen
carol@@
carri@@
carried
carrier
carriers
carries
carry
carrying
cars
cart@@
carte
cas
cas@@
casa
case
cases
cash
cash@@
casi@@
casino
cast
cast@@
castell@@
casting
castle
castles
castro
casts
casus
cat
cat@@
catal@@
catalog
catalogue
catalunya
catastro@@
catch
categ@@
categories
category
catering
cathedral
catho@@
catholic
cattle
cau@@
caucasus
caught
caus@@
cause
caused
causes
causing
caution
cav
cav@@
cave
cc
cc@@
cca
cco
cd
cd@@
cd-@@
cd-rom
cds
ce
ce@@
ce-@@
ceas@@
cease
ced
ceful
cei@@
ceiling
ceilings
cel
cel@@
celeb
celeb@@
celebr@@
celebrate
celebrated
celebration
celebrations
cell
cell@@
cellar
cells
cement
cen@@
cens@@
cent
cent@@
center
centers
centr@@
central
centrally
centre
centres
centro
centuries
century
ceo
cep@@
cer@@
ceram@@
cerem@@
ceremony
certain
certain@@
certainly
certainty
certi@@
certific@@
certificate
certificates
certification
certified
ces
ces@@
cf@@
ch
ch@@
ch-@@
cha
cha@@
châ@@
chain
chains
chair
chair@@
chairman
chairs
chal@@
chall@@
challeng@@
challenge
challenges
challenging
cham@@
chamber
chambre
chambres
champ@@
champion
championship
chan@@
chanc@@
chance
chancell@@
chancellor
chancen
chancengleichheit
chances
change
changed
changes
changing
chann@@
channel
channels
chaos
chap@@
chapter
chapters
char@@
charac@@
character
character@@
characterised
characteristic
characteristics
characterized
characters
charak@@
charakter
charakter@@
charge
charged
charges
charging
charles
charm
charman@@
charme
charming
chart
charta
charter
charts
chat
chat@@
che
che@@
cheap
cheaper
chec@@
chechn@@
chechnya
check
check@@
check-@@
checked
check-in
checking
check-out
checks
ched
cheese
chef
chef@@
chem
chem@@
chemical
chemicals
chemie
chemik@@
chemikalien
chemische
chemischen
chen
chen@@
chens
cher
cher@@
chern
chers
cherte
cherten
cherung
cherweise
ches
chest@@
chester
chestra
chf
chi
chi@@
chianti
chic@@
chicago
chief
chil@@
child
child@@
childhood
children
chile
chill
chin@@
china
chinas
chinese
chinesische
chinesischen
ching
chio
chip
chips
chirac
chise
chmal
chner
cho
cho@@
chocol@@
chocolate
choice
choices
choo@@
choose
choosing
chor@@
chose
chosen
chr.
chr@@
chri@@
chris
christ
christ@@
christen
christi@@
christian
christians
christlichen
christmas
christop@@
christoph
christus
chrom@@
chron@@
chronic
chs
chs@@
chst@@
cht
cht@@
chte
chten
chter
chter@@
chtern
chterung
chtes
chtest
chtet
chtete
chteten
chtig
chtige
chtigen
chtigkeit
chtlich
chtlin@@
chts
chts@@
chtsdest@@
chtung
chtungen
chtungs@@
chung
chungen
chungs@@
chur@@
church
churches
chy
ci
ci@@
cia
cial
cially
cian
ciano
cians
ciary
cide
cides
cies
cigar@@
cil
cils
cin@@
cinal
cinema
cing
cio
ción
cion@@
cious
cip@@
cipl@@
ciples
cir@@
circle
circles
circu@@
circuit
circul@@
circulation
circum@@
circumstances
cit@@
cities
citiz@@
citizen
citizens
citizenship
city
city@@
civi
civi@@
civil
civili@@
civilian
civilians
civilisation
ck
ck@@
ck-@@
cke
cked
cken
cken@@
cker
cker@@
cket
ckets
cking
cks
ckt
cky
cl@@
cla@@
claim
claim@@
claimed
claiming
claims
clar@@
clari@@
clarification
clarified
clarify
clarity
class
class@@
classes
classi
classi@@
classic
classical
classification
classified
clau@@
claude
clause
clauses
cle
cle@@
clean
clean@@
cleaned
cleaning
clear
clear@@
clearer
clearly
cles
cli
cli@@
click
clicking
client
clients
clim@@
climate
climb
climbing
clin@@
cling
clinical
clinton
clo@@
clock
clos@@
close
closed
closely
closer
closest
closing
closure
clothes
clothing
clou@@
clu
clu@@
club
club@@
clubs
cluster
cm
cm@@
cms
cn@@
cns
co
co.
co@@
co-@@
cô@@
co2
co2-@@
coa
coach
coal
coalition
coast
coast@@
coastal
coastline
coat
coating
cock
cock@@
cocktail
cocktails
cod
code
codecision
codes
codi@@
coff@@
coffee
coh@@
coher@@
coherence
coherent
cohes@@
cohesion
cohn@@
cohn-bendit
coin
coinci@@
coins
col
col@@
cold
coll@@
collabor@@
collaboration
collap@@
collapse
colleag@@
colleague
colleagues
collect
collected
collecting
collection
collections
collective
college
cologne
colom@@
colombia
colon@@
colonial
color
color@@
colors
colour
colour@@
coloured
colourful
colours
cols
colum@@
columbia
column
columns
com
com.
com@@
comb@@
combat
combating
combin@@
combination
combinations
combine
combined
combines
combining
come
comes
comfort
comfort@@
comfortable
comfortably
comforts
coming
comings
comit@@
comitology
comm@@
command
commander
commands
commem@@
commend
comment
comments
commer@@
commerce
commerci@@
commercial
commission
commission@@
commissioned
commissioner
commissioners
commit
commit@@
commitment
commitments
committ@@
committed
committee
committees
commodi@@
commodities
commodity
common
commonly
commons
commun@@
communic@@
communicate
communication
communications
communist
communities
community
como
comp@@
compact
compani@@
companied
companies
company
compar@@
comparable
compare
compared
comparison
compati@@
compatibility
compatible
compens@@
compensate
compensation
compet@@
compete
competence
competences
competent
competi@@
competing
competition
competitions
competitive
competitiveness
competitors
compiled
compl@@
complaint
complaints
complement
complementary
complet@@
complete
completed
completely
completing
completion
complex
complex@@
complexity
compli@@
compliance
complic@@
complicated
complied
complim@@
complimentary
comply
compo@@
compon@@
component
components
compos@@
composed
composer
composition
compreh@@
comprehen@@
comprehensible
comprehensive
comprises
comprising
compromise
compromises
compulsory
computer
computer@@
computers
con
con@@
conc@@
concei@@
conceived
concentr@@
concentrate
concentrated
concentration
concep@@
concept
conception
concepts
concer@@
concern
concern@@
concerned
concerning
concerns
concert
concerts
concessions
conci
conci@@
conciliation
conclu
conclu@@
conclude
concluded
concludes
concluding
conclusion
conclusions
concrete
condem@@
condemn
condemnation
condemned
condi
condi@@
condition
conditional
conditioned
conditioning
conditions
conduc
conduc@@
conduct
conducted
conducting
conductor
cone
conf@@
confer@@
conference
conferences
confi
confi@@
confidence
confident
confidenti@@
confidential
confidentiality
configur@@
configuration
configure
configured
confined
confir@@
confirm
confirmation
confirmed
confirms
conflic@@
conflict
conflicts
confron@@
confront
confronted
confused
confusion
congo
congrat@@
congratulate
congratulating
congratulations
congress
coni
conil
conjunction
conn@@
connec
connec@@
connect
connected
connecting
connection
connections
connects
conom@@
cons
cons@@
consci@@
conscience
conscious
consciousness
consec@@
consensus
consent
consequ@@
consequence
consequences
consequently
conserv@@
conservation
conservative
consi@@
consider
consider@@
considerable
considerably
consideration
considerations
considered
considering
considers
consist
consist@@
consisten@@
consistency
consistent
consistently
consisting
consists
console
consoli
consoli@@
consolidate
consolidated
consolidation
const@@
constant
constantly
constitu
constitu@@
constituency
constitute
constitutes
constitution
constitutional
constra@@
constraints
construc@@
construct
constructed
construction
constructive
consu@@
consul@@
consult
consult@@
consultancy
consultants
consultation
consultations
consulted
consulting
consum@@
consumer
consumers
consumption
cont@@
contact
contacts
contain
contain@@
contained
container
containers
containing
contains
contam@@
contamination
contem@@
contemporary
content
contents
contest
contex@@
context
contextual
contextually
contin@@
continent
continental
continents
continu
continu@@
continually
continuation
continue
continued
continues
continuing
continuity
continuous
continuously
contr@@
contra@@
contrac@@
contract
contracting
contracts
contractual
contradi@@
contradic@@
contradiction
contrary
contrast
contri
contri@@
contribut@@
contribute
contributed
contributes
contributing
contribution
contributions
contro@@
control
controll@@
controlled
controller
controlling
controls
controversi@@
controversial
conv@@
conve@@
conven@@
conveni@@
convenience
convenient
conveniently
convention
conventional
conventions
conver@@
convergence
convers@@
conversation
conversion
convert
converted
converter
convey
convic@@
conviction
convinc@@
convince
convinced
convincing
coo@@
cook@@
cookie
cookies
cooking
cool
cool@@
cooling
cooperate
cooperation
co-operation
cooperative
coordin@@
coordinate
coordinated
coordinating
coordination
cop@@
cope
copenhagen
copied
copies
copper
copy
copy@@
copyright
cor@@
corbett
core
corn@@
corner
cornerst@@
corpor@@
corporate
corporation
corporations
correc@@
correct
corrected
correction
correctly
correspon@@
correspond
corresponding
corresponds
corrid@@
corruption
cos
cos@@
cosme@@
cosmetic
cost
cost@@
cost-@@
costa
costly
costs
cosy
cot@@
côte
coton@@
cotonou
cotton
cou@@
could
couldn
coun@@
council
count
counted
counter
counter@@
counter-@@
counters
counting
countless
countr@@
countries
country
country@@
countryside
counts
county
coup
couple
coupled
couples
cour@@
courage
courage@@
course
courses
court
courts
courtyard
cover
cover@@
coverage
covered
covering
covers
covery
cow
cox
cozy
cp
cp@@
cpu
cr
cr@@
cra@@
craft
crash
cre@@
cream
create
created
creates
creating
creation
creative
creativity
creature
creatures
credi@@
credibility
credible
credit
credited
credits
cresp@@
crespo
crete
crew
cri
cri@@
crime
crimes
crimin@@
criminal
criminals
cript
cription
cris@@
crises
crisis
crist@@
criteri
criteri@@
criteria
criterion
critic@@
critical
critici@@
criticised
criticism
criticisms
critics
critique
crm
cro@@
croati@@
croatia
croatian
crop
crops
cross
cross@@
cross-@@
cross-border
cross-country
crossing
crow@@
crowd
cru
cru@@
crucial
crus@@
cruz
cryp@@
cryst@@
crystal
cs
cs@@
css
ct
ct@@
ction
cts
ctu@@
cu
cu@@
cub
cub@@
cuba
cuban
cubase
cube
cuisine
cul@@
cular
culinary
culp@@
cultiv@@
cultivation
cultur@@
cultural
culture
cultures
cum@@
cup
cur@@
cure
curr@@
curren@@
currencies
currency
current
currently
cury
cus
cust@@
custom
custom@@
customer
customers
customized
customs
cut
cut@@
cuts
cutting
cv@@
cy
cy@@
cyber@@
cycle
cycles
cycling
cyp@@
cypri@@
cyprus
cz
cz@@
czech
d
ｄ
ď
đ
ḏ
ð
Ð
d.
d.@@
d.h.
d@@
d-@@
ď@@
Ď@@
đ@@
Đ@@
ð@@
Ð@@
da
da@@
dabei
dable
dach
dach@@
dacht
dachte
dachten
dad
dadurch
dafür
dagegen
dah@@
daher
dahin
dahin@@
dahingehend
daily
daim@@
dairy
dak
dal
dal@@
dalai
dalmati@@
dam
dam@@
däm@@
damage
damaged
damages
damaging
damaligen
damals
dame
damen
damer
dameri@@
damit
damp@@
dampf@@
dampfbad
dan
dan@@
dän@@
danach
dance
dancing
daneben
dänemark
danger
danger@@
dangerous
dangers
daniel
dänischen
danish
dank
dank@@
dankbar
danke
danken
dann
dans
danu@@
danube
dar
dar@@
daran
darauf
daraufhin
daraus
dare
darf
darfur
dargestellt
darin
dark
dark@@
darlehen
darstellen
darstellt
darstellung
darüber
darum
darunter
dary
das
das@@
dass
dasselbe
dat
dat@@
data
datab@@
database
databases
date
dated
datei
datei@@
dateien
daten
daten@@
datenbank
datenbanken
datens@@
datenschutz
datenschutz@@
datent@@
dates
dating
dation
datum
dau
dau@@
dauer
dauer@@
dauerhaft
dauerhafte
dauerhaften
dauern
dauert
daughter
dav@@
davi
davi@@
david
davon
davor
day
day@@
days
day-to-@@
dazu
dazu@@
db
db@@
dbar
dc
dc@@
dd@@
dden
dden@@
ddenly
ddle
de
de@@
de-@@
dé@@
dead
dead@@
deadline
deadlines
deal
deal@@
dealer
dealers
dealing
deals
dealt
dear
death
deaths
deaux
deb
deb@@
debat@@
debate
debated
debates
debating
debatte
debi@@
debian
debian-@@
debt
debts
dec
dec@@
decade
decades
december
decent
decentr@@
deci
deci@@
decide
decided
decides
deciding
decisi@@
decision
decision-@@
decision-making
decisions
decisive
deck
deck@@
decken
deckt
deckung
declar@@
declaration
declarations
declare
declared
decline
decor
decor@@
decorated
decoration
decre@@
decrease
ded
dedic@@
dedicated
deed
deemed
deep
deep@@
deeper
deeply
def@@
default
defe@@
defeat
defect
defects
defen@@
defence
defend
defended
defending
defense
defic@@
deficit
deficits
defin@@
define
defined
defines
defini@@
definieren
definiert
definierte
defining
definite
definitely
definition
definitions
definitiv
definitive
defizit
degra@@
degre@@
degree
degrees
deh@@
dei
dei@@
dein
deine
deinem
deinen
deiner
dek@@
dekor@@
del
del@@
delay
delayed
delays
deleg@@
delegation
delegations
delete
deleted
deli@@
deliber@@
deliberately
delic@@
delicate
delicious
delight
delighted
delightful
delines
deliver
deliver@@
delivered
deliveries
delivering
delivers
delivery
dell
della
delle
deln
delta
deluxe
dem
dem@@
demand
demanded
demanding
demands
demark
demic
demnach
demnächst
demo
demo@@
democ@@
democracies
democracy
democrati@@
democratic
democratically
democratisation
democrats
demographic
demok@@
demokrati@@
demokratie
demokratien
demokratisch
demokratische
demokratischen
demokratisierung
demon@@
demonstr@@
demonstrate
demonstrated
demonstrates
demonstrating
demonstration
demonstrationen
demonstrations
demonstri@@
demonstrieren
demselben
den
den@@
dena
dence
dencies
dency
dend
dende
denden
dene
dened
denen
denied
dening
denjenigen
denk@@
denke
denken
denkt
denmark
denn
dennoch
dens
density
dent
dent@@
dental
dentally
denten
denti
denti@@
dentin
dently
dents
deny
denz
denzen
dep@@
depar@@
department
departments
departure
depen@@
depend
dependence
dependency
dependent
depending
depends
depic@@
depl@@
deplo@@
deployed
deployment
deposi@@
deposit
deposits
depression
depri@@
deprived
depth
der
der@@
der-@@
derart
derartige
derartigen
dere
dered
dereg@@
deren
derer
deri@@
dering
deriv@@
derived
derjenigen
derly
dern
derog@@
ders
derselben
dership
dert
derte
derung
derzei@@
derzeit
derzeitige
derzeitigen
des
des@@
desc@@
descri
descri@@
describe
described
describes
description
descriptions
deser@@
desert
deserve
deserves
deshalb
design
design@@
designated
designed
designer
designers
designing
designs
desirable
desire
desired
desires
desk
deskt@@
desktop
desper@@
despite
dessen
dest
dest@@
destabili@@
destens
destination
destinations
desto
destro@@
destroy
destroyed
destroying
destru@@
destruc@@
destruction
destructive
deswegen
det
det@@
detail
detail@@
detailed
detaillierte
detaillierten
details
dete
detect
detected
detection
deten
detention
deter
deteri@@
deterior@@
deterioration
determin@@
determination
determine
determined
determines
determining
detri@@
detriment
deu@@
deut@@
deuten
deutet
deutlich
deutliche
deutlichen
deutlicher
deutsch
deutsch@@
deutsche
deutschen
deutscher
deutschland
deutschlands
dev
dev@@
deva@@
devastating
develop
develop@@
developed
developer
developers
developing
development
developments
develops
devi
devi@@
device
devices
devote
devoted
dex
dex@@
dez
dez@@
dezember
df
dg
dge
dged
dges
dging
dh@@
di
di@@
dia
diagno@@
diagnose
diagnosis
diagr@@
dial
dial@@
dialog
dialog@@
dialogs
dialogue
diam@@
diameter
dian
diar@@
dic
dic@@
dice
dich
dicht
dichte
dict
dict@@
dictator@@
dictatorship
diction
did
did@@
didn
die
died
diejenigen
dien
dien@@
dienen
dienst
dienst@@
dienstag
dienste
diensten
dienstes
dienstleist@@
dienstleister
dienstleistung
dienstleistungen
dienstleistungs@@
dienstleistungsrichtlinie
dienststellen
dient
diente
dieren
diert
dierung
dies
dies@@
diesbezüglich
diesbezüglichen
diese
diesel
diesel@@
dieselbe
dieselben
diesem
diesen
dieser
dieses
diesjährigen
diesmal
diet
diff@@
differ
differ@@
difference
differences
different
differenti
differenti@@
differently
differenzen
differenzi@@
differing
difficul@@
difficult
difficulties
difficulty
dig
dig@@
dige
digen
diger
diges
digit@@
digital
digital@@
digitale
digitalen
digkeit
digkeiten
diglich
dign@@
dignity
digt
digte
digten
digung
digungen
digungs@@
dik@@
dikt@@
diktatur
dil@@
dim@@
dimen@@
dimension
dimension@@
dimensional
dimensionen
dimensions
dimin@@
din
din@@
dine
ding
ding@@
dinge
dingen
dings
dining
dinner
dio
dion
diox@@
dioxide
diplom@@
diplomacy
diplomatic
diplomatischen
dir
dir@@
dire@@
direc
direc@@
direct
directed
direction
directions
directive
directives
directly
director
director@@
directors
directory
direk@@
direkt
direkt@@
direkte
direkten
direkter
direktor
dirty
dis
dis@@
disabilities
disability
disabled
disadvantage
disadvantaged
disagree
disappear
disappeared
disappointed
disappointing
disappointment
disaster
disasters
disastro@@
disastrous
disc
disc@@
disch
dischar@@
discharge
dische
dischen
discher
discipl@@
disciplinary
discipline
disclos@@
discount
discounts
discover
discovered
discovering
discovery
discre@@
discretion
discrimin@@
discrimination
discriminatory
discuss
discuss@@
discussed
discussing
discussion
discussions
dise@@
disease
diseases
dish
dish@@
dishes
disk
disk@@
diskrimin@@
diskriminierung
disku@@
diskussion
diskussionen
diskussions@@
diskutieren
diskutiert
dismant@@
disney
disp
disp@@
disparities
dispat@@
displac@@
displaced
display
displayed
displays
dispos@@
disposal
dispute
disputes
dist@@
distan@@
distance
distances
distant
distinc
distinc@@
distinct
distinction
distinctive
distingu@@
distinguish
distinguished
distor@@
distortion
distri
distri@@
distribut@@
distribute
distributed
distribution
distributors
district
districts
distur@@
disziplin
disziplin@@
dit
dität
dition
ditions
dity
dium
div@@
dive
diver@@
diverse
diversen
diversi
diversi@@
diversity
divi
divi@@
divide
divided
diving
division
divisions
dj
dl@@
dle
dless
dlich
dliche
dlichen
dlicher
dlichkeit
dly
dm@@
dn@@
dna
dner
dness
dney
do
do@@
do-@@
doc@@
doch
doctor
doctors
doctr@@
docum@@
document
documentary
documentation
documented
documents
does
doesn
dog
dog@@
dogs
doh
doh@@
doha
doing
dok@@
dokum@@
dokument
dokument@@
dokumentation
dokumente
dokumenten
dokumentiert
dol@@
dollar
dollars
dolmet@@
dolom@@
dolomiten
dolomites
dom
dom@@
domain
domain@@
domains
domestic
domin@@
dominant
dominated
domini@@
don
don@@
donald
donation
donations
donau
done
donn@@
donner@@
donnerstag
donor
donors
door
door@@
doors
dopp@@
doppel@@
doppelbett
doppelt
doppelte
doppelten
doppelzimmer
dor
dor@@
dör@@
dorf
dorf@@
dörfer
dort
dorthin
dos
dose
dossier
dot@@
dou@@
doub@@
double
double-@@
doubt
doubts
dow
down
down@@
downlo@@
download
download@@
downloaded
downloading
downloads
downtown
doz@@
dp
dr
dr.
dr@@
dra@@
draft
drafted
drafting
drag
dram@@
drama
dramatic
dramatically
dramatischen
drän@@
drängt
dras@@
drastisch
drau@@
draußen
draw
draw@@
drawing
drawings
drawn
draws
dre@@
dream
dreams
dreh@@
drehen
dreht
drei
drei@@
dreißig
dren
dres@@
dresden
dress
drew
dri
dri@@
drin@@
dring@@
dringen
dringend
dringende
dringlich
dringlichkeit
drink
drinking
drinks
dritt@@
dritte
drittel
dritten
drittens
dritter
drive
driven
driver
drivers
drives
driving
dro@@
drogen
drogen@@
droh@@
droht
drop
dropped
dru
dru@@
druck
druck@@
drück@@
drücke
drucken
drücken
drucker
drücklich
drucks@@
drückt
drug
drugs
drum
dry
dryer
ds
ds@@
ds9
dsl@@
dson
dt
du
du@@
dü@@
dual
dub
dub@@
dubai
dublin
dubrov@@
dubrovnik
duc
duc@@
duce
duced
duction
due
duk@@
duktion
dul
dul@@
dule
duly
dum
dum@@
dump@@
dumping
dun@@
dün@@
dung
dungen
dungs@@
dungst@@
dunk@@
dup@@
duplic@@
dur@@
dür@@
duration
durch
durch@@
durchaus
durchbruch
durchführen
durchführung
durchführungs@@
durchgeführt
durchgeführten
durchgesetzt
durchschnitt
durchschnitt@@
durchschnittlich
durchschnittliche
durchsetzen
durchsetzung
durchzuführen
durchzusetzen
dürfen
durfte
dürfte
dürften
during
dus
dusche
düssel@@
düsseldorf
dust
dustri
dustri@@
dustrie
dut@@
dutch
duties
duty
dutz@@
duzi
duzi@@
dv@@
dvd
dvd-@@
dvds
dy
dy@@
dying
dyn@@
dynam@@
dynamic
dynamics
dynamik
dynamische
dynamischen
e
ｅ
℮
é
É
è
È
ė
ê
ë
Ë
ě
Ě
ĕ
ē
ẽ
ę
Ę
ế
ḗ
ẻ
ể
ə
ɚ
e-
e.
e.@@
e.com
e.g.
e.on
e.v.
e@@
e-@@
é@@
É@@
è@@
È@@
ė@@
Ė@@
ê@@
Ê@@
ë@@
Ë@@
ě@@
Ě@@
ĕ@@
ē@@
Ē@@
ę@@
Ę@@
ế@@
ề@@
ễ@@
ệ@@
ə@@
ea
eable
each
ead
ead@@
eads
eag@@
eal
eals
ean
ear
ear@@
earch
earlier
earliest
early
earn
earned
earning
earnings
ears
earth
earth@@
earthqu@@
earthquake
eas
eas@@
ease
easi
easi@@
easier
easily
easing
east
eastern
easy
easy-to-@@
eat
eating
eau
eb
eb@@
ebay
eben
eben@@
ebene
ebenen
ebenfalls
ebenso
ebo@@
ebody
ebook
ebt
ebung
eby
ec
ec@@
ecb
ece
eces
ech
ech@@
ech-@@
echen
eches
echische
echn@@
echnet
echni@@
echnik
echno@@
echnologie
echo
echt
echt@@
echte
echten
echter
echtes
echtzeit
eci@@
eck
eck@@
eck-@@
ecke
ecken
ecker
ecks
eckt
eco@@
eco-@@
ecological
ecommer@@
ecommerce
econom@@
economic
economical
economically
economics
economies
economists
economy
ect
ect@@
ected
ecting
ection
ection@@
ections
ectiv
ectiv@@
ective
ectively
ectives
ector
ectors
ects
ecture
ecu
ecu@@
ed
ed@@
ed-@@
eda
ede
eded
edel@@
eden
eder
eder@@
edern
edes
edes@@
edge
edges
edi@@
edia
edin@@
edinburgh
eding
edit
edited
editing
edition
editor
edly
edness
edo
eds
edt
educ
educ@@
educated
education
educational
edy
ee
ée
ee@@
eec
eed
eed@@
eeded
eeing
eel
een
ees
ées
ef
ef@@
efa
efe
efel@@
efen
efer@@
eff@@
effect
effectiv
effectiv@@
effective
effectively
effectiveness
effects
effek@@
effekt
effekte
effektiv
effektive
effektiver
effektivität
effici@@
efficiency
efficient
efficiently
effizi@@
effizient
effizient@@
effiziente
effizienten
effizienz
effort
efforts
efore
efront
efs
eft
eful
eful@@
efully
eg
eg@@
eg-@@
ega
egal
ege
egel
egel@@
egelt
egelung
egen
egen@@
egenheit
egenheiten
eger
eget@@
egf
egg
eggs
egi@@
ego
egr@@
egro
egt
egu@@
egyp@@
egypt
egyptian
eh
eh@@
ehe
ehear@@
ehem@@
ehemal@@
ehemalige
ehemaligen
ehen
ehende
ehenden
eher
eher@@
ehl
ehlt
ehm@@
ehmen
ehmen@@
ehmer
ehol@@
ehold
eholder
eholders
ehow
ehr
ehr@@
ehre
ehren
ehren@@
ehrgei@@
ehrgeizige
ehrlich
ehrs@@
ehrt
ehrte
ehrten
eht
ei
ei@@
eib
eich@@
eichen
eichert
eicht
eien
eiffel
eig@@
eigen
eigen@@
eigene
eigenem
eigenen
eigener
eigenes
eigenschaft
eigenschaften
eigent@@
eigentlich
eigentliche
eigentlichen
eigentum
eigentümer
eigentums
eigentums@@
eigh@@
eight
eign
eign@@
eignen
eignet
eil
eile
eilen
eili
eili@@
eill@@
eillance
eilung
eilungen
eim
eim@@
ein
ein-
ein@@
einander
einander@@
einbezogen
einbindung
einblick
einbringen
eindeu@@
eindeutig
eindeutige
eindeutigen
eindruck
eindrucks@@
eine
einem
einen
einer
einerseits
eines
einf@@
einfach
einfach@@
einfache
einfachen
einfacher
einfaches
einfl@@
einfluss
einfluss@@
einführen
einführung
eing
eing@@
eingab@@
eingabe
eingang
einge@@
eingeb@@
eingeben
eingebettet
eingebracht
eingebunden
eingeführt
eingegangen
eingehalten
eingehen
eingeladen
eingeleitet
eingenommen
einger@@
eingeräumt
eingereicht
eingereichten
eingericht@@
eingerichtet
eingerichtete
eingerichteten
eingesch@@
eingeschlossen
eingeschränkt
eingesetzt
eingest@@
eingestellt
eingetra@@
eingetragen
eingetreten
einhalb
einhalten
einhaltung
einhei@@
einheimischen
einheit
einheiten
einheitliche
einheitlichen
einher@@
einig
einig@@
einige
einigen
einiger
einiges
einigkeit
einigt
einigung
eink@@
einkaufs@@
einklang
einkommen
einkommens@@
einlad@@
einladen
einladung
einleitung
einm@@
einmal
einmalige
einmaligen
einnahmen
einnehmen
einrichten
einrichtung
einrichtungen
eins
einsatz
einsatz@@
einsatzes
einsch@@
einschätzung
einschlä@@
einschlägigen
einschließlich
einschränkung
einschränkungen
einsehen
einsei@@
einseitig
einsetzen
einsetzt
einsparungen
einst
einstellen
einstellung
einstellungen
einstieg
einstimm@@
einstimmig
eintrag
einträge
eintreten
eintritt
eintritt@@
eintrittsk@@
einverstanden
einw@@
einwand@@
einwände
einwanderer
einwohner
einwohnern
einzel@@
einzelheiten
einzeln
einzelne
einzelnen
einzelner
einzelpersonen
einzig
einzigar@@
einzigartig
einzigartige
einzigartigen
einzigartiges
einzige
einzigen
einziger
einziges
einzu@@
einzuführen
einzugehen
einzur@@
einzusetzen
einzustellen
eir
eira
eiro
eis
eis@@
eisen@@
eisenbahn
eisenbahn@@
eist@@
eister@@
eistungen
eit
eit@@
eite
eiten
either
eits@@
eive
eived
ej@@
ek
ek@@
eke@@
eken
eks
ekt
ekt@@
ektar
ekte
ekten
ektion
ektion@@
ektionen
ektor
ektur
el
el@@
el-@@
ela
elabor@@
eland
elba
eld
elderly
ele
ele@@
élé@@
elec
elec@@
elect
elected
election
elections
electoral
electri
electri@@
electric
electrical
electricity
electro@@
electron@@
electronic
electronics
eled
eleg@@
elegance
elegant
elegante
eleganten
eleganz
elek@@
elektr@@
elektri@@
elektrische
elektrischen
elektriz@@
elektro@@
elektron@@
elektronik
elektronik@@
elektronische
elektronischen
elektronischer
elem@@
element
element@@
elemente
elementen
elements
elen
eler@@
eless
eless@@
elev
elev@@
elevator
elf
eli@@
elier
eligi
eligi@@
eligible
elim@@
elimin@@
eliminate
eliminated
eliminating
elimination
eline
eling
elings
elisab@@
elite
ell
ell@@
ella
elle
ellec@@
elled
ellem
ellen
ellen@@
eller
ellers
elles
elli
elli@@
elligkeit
elling
ello
ellow
ells
ellschaft
eln
elop@@
els
els@@
else
elsewhere
elson
elt
elte
elten
eltern
eltern@@
elung
ely
elys@@
em
em@@
em-@@
ema
e-ma@@
email
e-mail
e-mail-@@
e-mail-adresse
emails
e-mails
emals
eman@@
emand
emandem
emanden
emann
emark
emark@@
emb@@
embar@@
embargo
embark@@
embedded
ember
ember@@
emberg
embers
embership
emble
embly
embra@@
embry@@
eme
ème
emed
emen
emen@@
ement
ement@@
ementary
emented
ementi
ementi@@
ementioned
ements
emer@@
emerg@@
emerge
emerged
emergence
emergency
emerging
emet@@
emi@@
emin@@
emis@@
emission
emission@@
emissionen
emissions
emissions@@
emm@@
emma
emo@@
emost
emotion@@
emotional
emotions
emp@@
emperat@@
emperor
empf@@
empfang
empfangen
empfänger
empfängt
empfeh@@
empfehl@@
empfehlen
empfehlenswert
empfehlung
empfehlungen
empfiehlt
empfin@@
empfohlen
empha@@
emphas@@
emphasis
emphasise
emphasised
emphasises
emphasize
empire
empl@@
emplo@@
employ
employ@@
employed
employee
employees
employers
employment
empty
ems
emu
en
én
en-
en.@@
en@@
en-@@
én@@
ena
enab@@
enable
enabled
enables
enabling
enberg
enburg
enc@@
ence
enced
ences
ench@@
enchanting
encia
encies
encing
enco@@
encomp@@
encounter
encounter@@
encountered
encour@@
encourage
encouraged
encouragement
encourages
encouraging
encryp@@
encrypted
encryption
ency
end
end@@
end-@@
enda
endant
endar
ende
ende@@
endeav@@
endeavour
ended
endem
enden
endence
endent
ender
ender@@
endere
endes
endet
endete
endgültig
endgültige
endgültigen
endi@@
ending
endless
endlich
endly
endo
endor@@
endorf
endorse
endorsed
ends
endste
endsten
endt
endu@@
endum
endums
endung
endungen
ene
ened
enem@@
enemies
enemy
enen
ener
ener@@
energ@@
energe@@
energi
energi@@
energie
energie@@
energieeffizienz
energien
energiepolitik
energies
energies@@
energiet@@
energiever@@
energieversorgung
energy
energy-@@
enes
eness
enever
enfalls
enfor@@
enforce
enforced
enforcement
eng
eng@@
engag@@
engage
engaged
engagement
engagieren
engagiert
enge
engen
enger
engere
engers
engine
engine@@
engineer
engineering
engineers
engines
england
engli
engli@@
englisch
englische
englischen
english
engruppen
enh@@
enha@@
enhagen
enhance
enhanced
enhancing
enhaus
enhäuser
enheit
enhof
eni@@
ening
enix
enjo@@
enjoy
enjoy@@
enjoyable
enjoyed
enjoying
enjoyment
enjoys
enk@@
enken
enko
enkt
enkung
enland
enlar@@
enlarged
enlargement
enn
enn@@
enna
enne
ennen
enness
enni@@
ennis
ennt
ennung
enny
eno
enon
enor@@
enorm
enorm@@
enorme
enormen
enormous
enos
enough
enrich@@
ens
ens@@
ense
ensei@@
enseite
enseits
ensem@@
enses
enship
enshr@@
enshrined
ensive
enst@@
enstadt
enstein
enster
en-suite
ensure
ensured
ensures
ensuring
enswert
enswerte
enswerten
enswür@@
ensystem
ent
ent@@
ent-@@
enta
entails
ental
entary
entation
entative
entdeck@@
entdecken
entdeckt
entdeckte
entdeckung
ente
ented
entei@@
enteil
enteils
enten
enten@@
enter
enter@@
entered
entering
enterprise
enterprises
enters
entertainment
entes
entf@@
entfern@@
entfernen
entfernt
entfernten
entfernung
entgegen
entgegen@@
enth@@
enthal@@
enthalt
enthält
enthalten
enthaltenen
enthusi@@
enthusias@@
enthusiasm
enthusiastic
enthusiasts
enti
enti@@
ential
entieren
entiert
entierte
entin
enting
entino
ention
entire
entirely
entities
entitled
entity
entlang
entlassen
entlastung
entlich
entliche
entlichen
ently
entnehmen
ento
entr@@
entran@@
entrance
entre
entre@@
entrep@@
entreprene@@
entrepreneur@@
entrepreneurs
entri
entri@@
entries
entru
entru@@
entrum
entrums
entry
ents
ents@@
entsch@@
entschädigung
entschei@@
entscheiden
entscheidend
entscheidende
entscheidenden
entscheidender
entscheidet
entscheidung
entscheidungen
entscheidungs@@
entscheidungsträger
entschied
entschieden
entschließung
entschlossen
entschul@@
entschuldigen
entsor@@
entsp@@
entspann@@
entspannen
entspannung
entsprech@@
entsprechen
entsprechend
entsprechende
entsprechenden
entsprechender
entspricht
entstand
entstand@@
entstanden
entsteh@@
entstehen
entstehenden
entsteht
entstehung
enttäu@@
enttäuscht
enttäuschung
entu@@
entum
entur@@
enture
entures
entweder
entwick@@
entwickel@@
entwickeln
entwickelt
entwickelte
entwickelten
entwickl@@
entwickler
entwicklung
entwicklungen
entwicklungs@@
entwicklungszusammenarbeit
entwurf
enty
enty-@@
entziehen
entzieht
environ@@
environment
environment@@
environmental
environmentally
environments
envis@@
envisaged
enz
enz@@
enza
enze
enzen
enzi
enzi@@
enzimmer
enzo
eo
eon
eos
eover
ep
ep@@
epage
eper
eph@@
epi@@
epide@@
eping
epis@@
episode
epo@@
eps
ept
ept@@
eption
equ
equ@@
equal
equality
equally
equi@@
équi@@
equipment
equipped
equity
equivalent
er
er-
er@@
er-@@
ér@@
era
era@@
eradic@@
erarbeiten
erarbeitet
erarbeitung
eras
erasmus
erb@@
erbaut
erbe
erbracht
erbringen
erc@@
erd@@
erdbe@@
erdbeben
erde
erdgeschoss
erdo@@
ere
ère
ered
erei
erei@@
ereien
ereignis
ereignisse
ereignissen
erem
eren
erend
erende
erenden
erer
eres
ères
erfahr@@
erfahren
erfahrung
erfahrungen
erfahrungs@@
erfassen
erfasst
erfassung
erfin@@
erfol@@
erfolg
erfolge
erfolgen
erfolgrei@@
erfolgreich
erfolgreich@@
erfolgreiche
erfolgreichen
erfolgreicher
erfolgs@@
erfolgt
erfolgte
erfor@@
erforder@@
erforderlich
erforderliche
erforderlichen
erfordern
erfordernisse
erfordert
erforschung
erfreu@@
erfreut
erfris@@
erfüllen
erfüllt
erfüllung
erg@@
ergän@@
ergänz@@
ergänzen
ergänzt
ergänzung
ergeb@@
ergeben
ergebnis
ergebnisse
ergebnissen
ergi
ergi@@
ergibt
ergie
ergies
ergonom@@
ergrei@@
ergreifen
ergriffen
ergy
erh@@
erhäl@@
erhalt
erhält
erhalten
erhältlich
erhaltung
erheb@@
erheben
erheblich
erhebliche
erheblichen
erhebt
erhebung
erhielt
erhielten
erhoben
erhöh@@
erhöhen
erhöht
erhöhte
erhöhten
erhöhung
erhol@@
erholen
erholsamen
erholung
erholungs@@
eri
eri@@
éri@@
eria
erial
eric
eric@@
erie
erien
erieren
eriert
eries
erige
erigen
erika
erin
ering
erinn@@
erinnen
erinner@@
erinnern
erinnert
erinnerung
erinnerungen
eriode
erior
erische
erischen
erity
erium
eriums
erk@@
erkannt
erkenn@@
erkennbar
erkennen
erkennt
erkenntnis
erkenntnisse
erkennung
erklär@@
erklären
erklärt
erklärte
erklärung
erklärungen
erkrank@@
erkrankungen
erkt
erkunden
erland
erlangen
erlangt
erlassen
erläu@@
erlaub@@
erlauben
erlaubnis
erlaubt
erläutern
erläutert
erle@@
erleb@@
erleben
erlebnis
erlebnis@@
erlebt
erledigen
erledigt
erlei
erlei@@
erleichtern
erleichtert
erleichterung
erly
ermaßen
ermin@@
ermitt@@
ermitteln
ermittelt
ermo
ermögli@@
ermöglichen
ermöglicht
ermordet
ermu
ermu@@
ermutigen
ern
ern@@
ernährung
ernährungs@@
ernal
ernannt
ernd
ernde
ernden
erne
ernen
ernennung
erner
ernet
erneu@@
erneuerbare
erneuerbarer
erneut
erning
ernity
erns@@
ernst
ernsthaft
ernsthafte
ernt
ero
ero@@
ero-@@
erober@@
eröffnen
eröffnet
eröffnete
eröffnung
eron
erospace
erous
err@@
errasse
erre@@
errei@@
erreich@@
erreichbar
erreichen
erreicht
erreichte
erreichung
errichten
errichtet
errichtung
error
errors
erry
ers
ers@@
ersatz
ersatz@@
ersch@@
erschein@@
erscheinen
erscheint
erscheinung
erschi@@
erschien
erschienen
erschüt@@
erschwing@@
erseits
ersetzen
ersetzt
ership
erst
erst@@
erstat@@
erstattet
erstaun@@
erste
erstellen
erstellt
erstellung
ersten
erstens
erster
erstes
erstklassi@@
erstklassige
erstklassigen
erstmals
erstre@@
erstreckt
ersuchen
ert
ert@@
erte
erteilen
erteilt
ertem
erten
erter
ertes
ertevent@@
erung
erungen
erungs@@
erup@@
ervice
erw@@
erwachsen@@
erwachsene
erwachsenen
erwägung
erwäh@@
erwähnt
erwähnte
erwähnten
erwar@@
erwarte
erwarten
erwartet
erwartete
erwarteten
erwartungen
erweise
erweisen
erweist
erweiter@@
erweitern
erweitert
erweiterte
erweiterten
erweiterung
erweiterungen
erweiterungs@@
erwer@@
erwerb
erwerben
erwiesen
erwor@@
erworben
ery
erzählen
erzählt
erzeit
erzeu@@
erzeugen
erzeugnisse
erzeugt
erzeugung
erzi
erzi@@
erziehung
erzielen
erzielt
erzielte
es
és
ès
es.@@
es@@
es-@@
esa
esc@@
escal@@
escap@@
escape
esch
esch@@
esco
esday
ese
esen
esen@@
esenen
eservice
esh
esh@@
esi@@
esien
esion
esis
esisch
esische
esischen
esk@@
esn
eso
esp
esp@@
especi@@
especially
esque
ess
ess@@
essal@@
esse
essed
essel
essen
essence
essenti@@
essential
essentially
esses
essi
essi@@
essimis@@
essing
ession
essions
essive
essively
esso
essor
essors
esst
est
est@@
esta
establish
establish@@
established
establishes
establishing
establishment
establishments
estate
este
ested
estelle
esten
estens
ester
ester@@
esthouse
esti
esti@@
estic
estim@@
estimate
estimated
estimates
esting
estland
estock
estone
estonia
estr@@
estri@@
estro
ests
estu@@
esty
et
et@@
et-@@
eta
etab@@
etabliert
etage
etagen
etal
etappe
etary
etc
etc.
etch
ete
été
ete@@
eted
eten
eten@@
eter
eter@@
etern
etero@@
eters
etes
eth
eth@@
ethernet
ethi@@
ethical
ethics
ethischen
ethnic
ethnische
ethnischen
etic
eties
etik@@
eting
etings
etor@@
etr@@
etri@@
etric
etrie
etry
ets
ett
ett@@
etta
ettbewer@@
ette
etten
etten@@
etter
etter@@
ettering
ettes
ettet
etti
etto
etts
etus
etw@@
etwa
etwa@@
etwas
ety
etz
etz@@
etze
etzen
etzt
etzung
eu
eu@@
eu-@@
eu-bürger
euch
euch@@
euer
euer@@
euern
euert
euerung
eu-mitgliedstaaten
eur
eur@@
eure
euren
eurex
euro
euro@@
euro-@@
eurob@@
eurocopter
eurojust
euro-mediterranean
europ
europ@@
europa
europa@@
europa-@@
europä@@
europäer
europäern
europäische
europäischen
europäischer
europäisches
europar@@
europas
europaweit
europe
europe@@
european
-european
europeans
europol
euror@@
euros
eurostat
eurozone
eus
eute
eux
ev
ev@@
eva
eval
evalu@@
evaluate
evaluated
evaluation
evaluierung
evangel@@
evans
eve
even
even@@
evening
evenings
event
event@@
eventh
events
eventu@@
eventually
eventuell
eventuelle
ever
ever@@
ever-@@
everest
every
every@@
everybody
everyday
everyone
everything
everywhere
evi
evi@@
evidence
evident
evil
evision
evo
evol@@
evolu@@
evolution
ew
ew@@
eway
ewg
ewi@@
ex
ex@@
ex-@@
exac@@
exacerb@@
exact
exactly
exag@@
exagger@@
exakt
exam@@
examination
examine
examined
examining
example
examples
exc@@
excav@@
exceed
exceed@@
exceeded
excel
excell@@
excellence
excellent
excep@@
except
exception
exceptional
exceptionally
exceptions
excess
excessive
exchange
exchanges
exciting
exclu
exclu@@
exclude
excluded
excluding
exclusion
exclusive
exclusively
excur@@
excursions
excuse
exe
exec
exec@@
execute
executed
execution
executive
exek@@
exemp@@
exempl@@
exemplary
exemption
exer@@
exerc@@
exercise
exercises
exert
exhau@@
exhaus@@
exhi
exhi@@
exhibit@@
exhibition
exhibitions
exhibitors
exi@@
exis@@
exist
exist@@
existed
existence
existenz
existi@@
existieren
existierenden
existiert
existing
exists
exit
exklusi@@
exklusiv
exklusive
exklusiven
exo@@
exotic
exp@@
expan@@
expand
expanded
expanding
expansion
expect
expect@@
expectations
expected
expecting
expects
expendi@@
expenditure
expense
expenses
expensive
exper@@
experi
experi@@
experience
experienced
experiences
experiencing
experim@@
experiment
experimental
experiments
expert
experten
experten@@
expertise
experts
expl@@
explain
explained
explains
explan@@
explanation
explanations
explanatory
explic@@
explicit
explicitly
expliz@@
explo@@
exploit
exploitation
exploited
explore
explorer
exploring
explosion
expo
expor@@
export
export@@
exported
exports
expos@@
exposed
exposure
expres@@
express
express@@
expressed
expresses
expressing
expression
expressions
expressly
exqu@@
exquisite
ext
ext@@
exten@@
extend
extended
extending
extends
extension
extensive
extent
exter@@
extern@@
external
externe
externen
extra
extra@@
extrac@@
extract
extraordinary
extre@@
extrem
extrem@@
extreme
extremely
extremen
extremis@@
exzell@@
exzellente
exzellenten
ey
ey@@
eye
eyes
ez
ez@@
ezb
ezu
ɛ
ɛ@@
f
ƒ
f.
f@@
f-@@
-f@@
ƒ@@
fa
fa@@
fab@@
fabri
fabri@@
fabric
fabrics
fabrik
fabulous
fac
fac@@
face
facebook
faced
faces
fach
fach@@
fache
fachen
fachleute
facili
facili@@
facilit@@
facilitate
facilitating
facilities
facility
facing
fact
facto
factor
factories
factors
factory
facts
faden
fähi@@
fähig
fähige
fähigen
fähiger
fähigkeit
fähigkeiten
fahr@@
fähr@@
fahren
fahrens
fahrens@@
fahrer
fahrrad
fahrrad@@
fahrt
fährt
fahrt@@
fahrten
fahrts@@
fahrung
fahrzeu@@
fahrzeug
fahrzeug@@
fahrzeuge
fahrzeugen
fai@@
fail
fail@@
failed
failing
fails
failure
failures
fair
fair@@
faire
fairen
fairer
fairly
fairs
faith
fak@@
fakten
faktor
faktoren
fal@@
fäl@@
fall
fall@@
falle
fälle
fallen
fällen
fallenden
fällig
fällige
falling
falls
fällt
falsch
falsche
falschen
false
falt
fam@@
famil@@
famili
famili@@
familiar
familie
familien
familien@@
familienzimmer
families
family
family-@@
family-run
famous
fan
fan@@
fand
fanden
fang
fang@@
fangen
fangs
fans
fant@@
fantas@@
fantastic
faq
far
far@@
far-@@
farb@@
farbe
farben
fare
farm
farm@@
farmers
farming
farms
far-reaching
fas@@
fasc@@
fascin@@
fascinating
fashi@@
fashion
fashionable
fass@@
fassen
faßt
fasste
fassung
fassungs@@
fast
fast@@
faster
fastest
faszin@@
fat
fat@@
fate
father
fault
fauna
fav
fav@@
favor
favor@@
favorite
favour
favour@@
favourable
favoured
favourite
fax
fax-
fax@@
fc
fe
fe@@
fear
fear@@
fears
feasi@@
feasible
feat@@
feature
featured
features
featuring
feb
feb@@
febru@@
februar
february
fed
feder@@
federal
federation
fee
feed
feed@@
feedback
feeding
feeds
feel
feeling
feelings
feels
fees
feet
feh
feh@@
fehl@@
fehlen
fehlende
fehlenden
fehler
fehler@@
fehlern
fehlt
fei@@
feier@@
feiern
fein@@
feind
feindlichkeit
fel
fel@@
feld
feld@@
felder
feldern
feli@@
fell
fellow
fels@@
felt
fem@@
female
femin@@
fen
fen@@
fenst@@
fenster
fer
fer@@
fere
ference
ferenz
feri
feri@@
ferien
ferien@@
ferienhaus
ferienwoh@@
ferienwohnung
ferienwohnungen
fern
fern@@
fernen
ferner
fernseh@@
fernsehen
fernseher
ferr@@
ferrari
ferrero-@@
ferrero-waldner
ferry
fers
fertig
fertig@@
fertigen
fertigt
fertigte
fertigung
fertigungs@@
fertili@@
fes
fes@@
fession@@
fest
fest@@
feste
festen
festgehalten
festgelegt
festgelegten
festgestellt
festival
festivals
festlegen
festlegung
festplatte
feststellen
feststellung
festung
festyle
festzustellen
feu@@
feuer
feuer@@
few
fewer
ff
ff@@
ffel
ffen
ffer
ffer@@
ffern
ffs
fft
fi
-fi
fi@@
fia
fiable
fic
fic@@
fically
fication
fications
fice
fici@@
ficial
fiction
fied
fiel
fiel@@
field
fields
fielen
fien
fier
fies
fif@@
fifa
fifteen
fifth
fig
fig@@
figer
figh@@
fight
fighting
figur
figur@@
figuration
figure
figures
fik
fik@@
fikation
fikationen
fikations@@
fil
fil@@
file
filed
files
fili
fili@@
fill
filled
filling
film
film@@
filme
filmen
films
filter
filter@@
filters
fin
fin@@
final
finally
finan@@
finance
financed
finances
financial
financially
financing
finanz-
finanz@@
finanzdienstleistungen
finanzen
finanzi@@
finanziell
finanzielle
finanziellen
finanziert
finanzierung
finanzierungs@@
finanzkrise
finanzminister
finanzmittel
find
finde
finden
findest
findet
finding
findings
finds
findung
fine
fined
fines
finest
fing
finger
finger@@
finish
finished
finishing
finland
finn@@
finnischen
finnish
finnland
fir@@
fire
fire@@
firefox
fireplace
fires
firm
firma
firmen
firmen@@
firmly
firms
first
first-@@
first-class
firstly
fis@@
fiscal
fisch
fisch@@
fische
fischen
fischer
fischer@@
fischerei@@
fischler
fish
fish@@
fisher@@
fisheries
fishermen
fishing
fit
fit@@
fitness
fitness@@
fitnesscenter
fitnessraum
fits
fitt@@
fitted
fitting
five
five-@@
fix
fix@@
fixed
fixes
fiz@@
fizi
fizi@@
fizieren
fiziert
fizierte
fizierten
fizierung
fizierungs@@
ﬂ
fl@@
fla@@
flä@@
flach@@
fläch@@
fläche
flächen
flächen@@
flag
flag@@
flags
flair
flan@@
flas@@
flash
flat
flat@@
flation
flav@@
fle@@
fleet
fleisch
fleisch@@
flex@@
flexi@@
flexibel
flexibilität
flexibility
flexible
flexiblen
flexibler
fli
fli@@
flich
flicht
fliegen
flight
flights
flo@@
floo@@
flood
floods
floor
floors
flor@@
flora
florence
florenz
flori@@
florida
flotte
flour@@
flow
flower
flowers
flows
flu
flu@@
flü@@
flucht
flücht@@
flüchtlinge
flüchtlingen
flüchtlings@@
fluctu@@
flug
flug@@
flüge
flügen
fluggesellschaft
fluggesellschaften
flughaf@@
flughafen
flughäfen
flughafen@@
flugzeug
flugzeug@@
flugzeuge
flugzeugen
flus@@
fluss
flusses
flüssi@@
fly
flying
fo@@
foc@@
focus
focused
focuses
focusing
föder@@
fok@@
fokus
fol@@
fold
folder
folg
folge
folge@@
folgen
folgen@@
folgend
folgende
folgenden
folgendes
folglich
folgt
folgte
foli@@
folio
folios
folk
follow
follow@@
followed
following
follows
follow-up
folter
fon@@
fonds
font
font@@
fontaine
foo@@
food
food@@
foods
foodstuffs
foot
foot@@
football
footing
for
for@@
för@@
forbi@@
forbidden
force
forced
forces
forcing
ford
forder@@
förder@@
fordern
fördern
fordert
fördert
forderte
forderten
forderung
förderung
forderungen
fore
forec@@
forecast
forecasts
foreh@@
foreign
foreign@@
foreigners
foremost
foren
fores@@
forest
forest@@
forestry
forests
forever
forge
forget
forgotten
form
form@@
formal
formally
format
formate
formation
formats
formed
formel
formen
former
formerly
förmi@@
forming
formity
forms
formu@@
formul@@
formula
formular
formulated
formuli@@
formulieren
formuliert
formulierung
forsch@@
forscher
forschung
forschungs-
forschungs@@
forst@@
fort
fort@@
fortable
fortgeschritt@@
fortgesetzt
forth
forth@@
forthcoming
forti@@
fortress
forts
forts@@
fortsch@@
fortschritt
fortschritt@@
fortschritte
fortsetzen
fortsetzung
fortun@@
fortunate
fortunately
fortzusetzen
forum
forums
forwar@@
forward
fossi
fossi@@
fossil
foster
fot@@
foto
foto@@
fotogra@@
fotograf@@
fotografen
fotografie
fotok@@
fotokopier@@
fotos
fou@@
fought
foun@@
found
found@@
foundation
foundations
founded
founder
founding
four
four@@
four-@@
fourth
fourthly
fox
fp@@
fr
fr@@
fra@@
fracht@@
frag@@
frage
fragen
fragestell@@
fragestunde
fragi@@
fragile
fragm@@
fragt
fragte
fraktion
fraktionen
frame
frames
framework
fran@@
franc@@
franç@@
france
francisco
frank
frank@@
frankfur@@
frankfurt
frankfurter
frankreich
frankreichs
franz
franzo@@
französ@@
franzosen
französisch
französische
französischen
fratt@@
frattini
frau
frau@@
fraud
frauen
frauen@@
fre@@
frecht@@
fred
free
-free
free@@
free-@@
freed@@
freedom
freedoms
freely
frei
frei@@
freiburg
freie
freiem
freien
freier
freies
freight
freiheit
freiheiten
freilassung
freit
freitag
freiwil@@
freiwilli@@
freiwillig
freiwillige
freiwilligen
freizeit
freizeit@@
frem@@
fremd@@
fremden
fremden@@
fren@@
french
frequ@@
frequency
frequent
frequently
fres@@
fresh
fresh@@
freu@@
freude
freue
freuen
freund
freund@@
freunde
freunden
freundlich
freundliche
freundlichen
freundlicher
freundliches
freundlichkeit
freundschaft
freut
fri
fri@@
friday
fridge
fried
fried@@
frieden
friedens
friedens@@
friedliche
friedlichen
friedrich
friedrich@@
friend
friend@@
friendly
friends
friendship
fris@@
frisch
frische
frischen
frist
fristen
fristig
fro@@
froh
from
fron@@
front
front@@
frontex
frozen
fru
fru@@
frü@@
frucht@@
früchte
früh
früh@@
frühen
früher
frühere
früheren
frühjahr
frühling
frühst@@
frühstück
frühstücks@@
frühstücksbuffet
frühstücksraum
fruit
fruit@@
fruits
frustr@@
fs
fs@@
ft
ft@@
ft-@@
fte
fted
ften
fter
fting
ftp
fts
fts@@
ftsman
ftung
fu
fü
fÜ
fu@@
fü@@
fÜ@@
fuel
fuels
fuer
fuertevent@@
fuerteventura
fugen
fügen
fügt
füh@@
fühl
fühle
fühlen
fühlt
fuhr
fuhr@@
führ@@
führen
führende
führenden
führender
führer
führt
führte
führten
führung
führungen
führungs@@
fuji@@
fujifilm
ful
ful@@
fül@@
fulfil
fulfil@@
fulfill
fulfilled
fulfilling
full
full-@@
füll@@
fülle
füllen
füllt
füllung
fully
fully-@@
fun
fun@@
fün@@
func@@
function
functional
functionality
functioning
functions
fund
fund@@
fundament
fundament@@
fundamental
fundamentally
funded
funden
fundi@@
funding
funds
fünf
fünf@@
fünfzehn
fung
fungen
funk
funk@@
funktion
funktion@@
funktionalität
funktionen
funktionieren
funktioniert
funktions@@
funktionsweise
fur
für
fur@@
für@@
furnis@@
furnished
furnishings
furniture
fürst@@
further
furthermore
fusion
fuss
fuss@@
fußball
fußball@@
füßen
fußgän@@
fußgänger@@
fut@@
futter@@
futur@@
future
fy
fying
g
ǵ
Ǵ
ġ
ĝ
ğ
g.
g@@
g-@@
ġ@@
Ġ@@
ĝ@@
ğ@@
Ğ@@
ģ@@
ɣ@@
ɤ@@
ɡ@@
g20
g8
ga
ga@@
gä@@
gab
gab@@
gabe
gäbe
gaben
gaben@@
gabri
gabri@@
gage
gain
gained
gaining
gains
gal
gal@@
galax@@
galerie
gali@@
galici@@
galile@@
galileo
gall@@
galleries
gallery
galt
gam@@
gambling
game
game@@
games
gaming
gan
gan@@
gän@@
gang
gang@@
gänge
gangen
gängen
gangen@@
gangene
gangenen
gängi@@
gängig
gängigen
gangs
gangs@@
gano
ganz
ganz@@
ganze
ganzen
ganzes
gänzlich
gap
gaps
gar
gar@@
garage
garanti
garanti@@
garantie
garantien
garantieren
garantiert
garc@@
garda
garde
garden
gardens
garten
gärten
garten@@
gas
gas@@
gases
gasse
gast
gast@@
gäste
gäste@@
gästen
gastfreund@@
gastfreundschaft
gastronom@@
gastronomie
gat@@
gate
gates
gather
gather@@
gathered
gathering
gau@@
gaulle
gave
gay
gaz@@
gaza
gb
gb@@
gbarkeit
gbp
gdp
ge
ge@@
ge-@@
geable
geachtet
geänder@@
geändert
gear
gearbeitet
geared
geäußert
geb
geb@@
gebau@@
gebäu@@
gebäude
gebäuden
gebäudes
gebaut
gebe
geben
geben@@
gebend
gebenden
gebene
gebenen
geber
geber@@
gebern
gebeten
gebi
gebi@@
gebiet
gebiet@@
gebiete
gebieten
gebil@@
gebildet
gebilligt
gebir@@
geblieben
gebnis
gebnisse
gebo@@
gebor@@
geboren
gebot
gebot@@
geboten
gebracht
gebrachten
gebrau@@
gebrauch
gebraucht
gebro@@
gebrochen
gebucht
gebühr
gebühr@@
gebühren
gebunden
gebung
gebur@@
geburt
geburt@@
geburts@@
geburtstag
ged
ged@@
gedacht
gedächt@@
gedächtnis
gedank@@
gedanke
gedanken
gedruck@@
geduld
gee
geehrte
geeign@@
geeignet
geeignete
geeigneten
gef@@
gefä@@
gefahr
gefähr@@
gefährdet
gefahren
gefährlich
gefährliche
gefährlichen
gefäl@@
gefallen
gefällt
gefän@@
gefangen
gefangen@@
gefangenen
gefas@@
gefasst
gefei@@
gefertigt
gefolgt
geförder@@
gefordert
gefördert
gefragt
gefü@@
gefühl
gefühle
geführt
geführte
geführten
gefunden
geg@@
gegangen
gegeben
gegeben@@
gegebenen
gegebenenfalls
gegebenheiten
gegen
gegen@@
gegend
gegenden
gegens@@
gegensatz
gegenseitig
gegenseitige
gegenseitigen
gegenstand
gegenstände
gegenteil
gegenüber
gegenüber@@
gegenwär@@
gegenwart
gegenwärtig
gegenwärtige
gegenwärtigen
gegn@@
gegner
gegrün@@
gegründet
geh
geh@@
gehabt
gehalt
gehalten
gehand@@
gehandelt
gehäuse
gehe
gehei@@
geheim@@
geheimnis
gehen
gehend
gehende
gehenden
gehens@@
gehir@@
gehminuten
gehö@@
gehoben
gehol@@
geholfen
geholt
gehör@@
gehören
gehöri@@
gehörige
gehörigen
gehörigkeit
gehört
gehörte
geht
gei@@
geist
geist@@
geistigen
gek@@
gekauft
gekehrt
gekenn@@
gekennzeichnet
gekl@@
geklärt
gekommen
gekrön@@
gel
gel@@
gelad@@
geladen
gelag@@
gelände
gelang
gelangen
gelangt
gelass@@
gelassen
geld
geld@@
gelder
geleg@@
gelegen
gelegene
gelegenen
gelegenheit
gelegentlich
gelegt
gelegte
gelegten
gelei@@
geleistet
geleistete
geleitet
gelernt
gelesen
gelief@@
geliefert
gelieferten
gelingen
gelingt
gelist@@
gelistet
geln
gelö@@
gelöscht
gelöst
gels
gelt
gelten
geltend
geltenden
geltung
geltungsbereich
gelun@@
gelungen
gely
gem
gem@@
gemä@@
gemacht
gemachten
gemäl@@
gemäß
gemein@@
gemeinde
gemeinden
gemeinnüt@@
gemeinsam
gemeinsame
gemeinsamen
gemeinsames
gemeinschaft
gemeinschaft@@
gemeinschaften
gemeinschaftliche
gemeinschafts@@
gemeinschaftsrecht
gemeinschaftsrechts
gemeint
gemeldet
gement
gements
gemessen
gemis@@
gemü@@
gemüse
gemütlich
gemütliche
gemütlichen
gen
gen@@
gen-@@
genab@@
genannt
genannte
genannten
genau
genau@@
genaue
genauen
genauer
genauigkeit
genauso
gence
gency
gend
gend@@
gende
genden
gender
gendes
gene
gene@@
genehm@@
genehmigt
genehmigung
genen
gener
gener@@
general
general@@
generaldire@@
generally
generalsekre@@
generalsekretär
generate
generated
generates
generating
generation
generationen
generations
generator
generell
generic
generous
genes
genetic
genetically
geneva
genf
genfer
geni@@
genic
genie@@
genießen
geno@@
genocide
genommen
genommenen
genöss@@
genossen
genous
gens
gent
gent@@
gente
genten
gentle
gentlem@@
gentlemen
gentoo
genu@@
genü@@
genug
genügend
genügt
genuine
genuinely
genuss
genutz@@
genutzt
genz
genz@@
geo@@
geöffnet
geograf@@
geograph@@
geographi@@
geographical
geom@@
geopoli@@
geor@@
geordnet
georg
george
georgi
georgi@@
georgia
georgien
gep@@
gepäck
gepäck@@
gepf@@
gepflegt
geplan@@
geplant
geplante
geplanten
geprä@@
geprägt
geprüft
ger
ger@@
ger-@@
gerade
gerade@@
geradezu
gerät
geräte
geraten
geräten
geräum@@
geräumige
geräumigen
gere
gerechnet
gerecht
gerechte
gerechten
gerechtfertigt
gerechtigkeit
gered
geregelt
gerei@@
geri
geri@@
gericht
gericht@@
gerichte
gerichten
gerichtet
gerichtete
gerichteten
gerichts@@
gerichtsh@@
gerichtshof
gering
gering@@
geringe
geringen
geringer
geringeren
gerlich
german
german@@
german-@@
germans
germany
gern
gerne
gers
gert
gerte
gerü@@
gerufen
gerung
gerungen
gerweise
gery
ges
ges@@
gesagt
gesam@@
gesamm@@
gesammelt
gesamt
gesamt@@
gesamte
gesamten
gesamtheit
gesand@@
gesandt
gesch@@
geschäf@@
geschaff@@
geschaffen
geschafft
geschäft
geschäft@@
geschäfte
geschäften
geschäfts-
geschäfts@@
geschäftsbedingungen
geschäftsführer
geschäftsordnung
geschäftsreisende
geschah
geschätz@@
geschätzt
gescheh@@
geschehen
geschei@@
gescheitert
geschen@@
geschenk
geschenkt
geschi@@
geschicht@@
geschichte
geschichten
geschickt
geschieht
geschlagen
geschle@@
geschlechter
geschlossen
geschlossen@@
geschlossene
geschlossenen
geschm@@
geschmack
geschmack@@
geschmackvoll
geschnei@@
gescho@@
geschoss
geschrieben
geschütz@@
geschützt
geschützten
geschwindigkeit
geseh@@
gesehen
gesell@@
gesellschaft
gesellschaften
gesellschaftliche
gesellschaftlichen
gesellschafts@@
gesendet
gesenkt
gesetz
gesetz@@
gesetze
gesetzen
gesetzes
gesetzes@@
gesetzgeber
gesetzgebung
gesetzgebungs@@
gesetzlich
gesetzliche
gesetzlichen
gesetzt
gesetzte
gesetzten
gesi@@
gesichert
gesicht
gesicht@@
gesonder@@
gesorgt
gesp@@
gespei@@
gespeichert
gesper@@
gespielt
gesprä@@
gespräch
gespräche
gesprächen
gesprochen
gess@@
gessen
gest
gest@@
gestalt
gestalt@@
gestalten
gestaltet
gestaltung
gestanden
gestärkt
gestartet
gestattet
gestei@@
gestell@@
gestellt
gestellte
gestellten
gestern
gesteuert
gesti@@
gestiegen
gestimmt
gesto@@
gestri@@
gestrichen
gestrigen
gestütz@@
gesu@@
gesucht
gesund@@
gesunde
gesunden
gesundheit
gesundheitlichen
gesundheits-
gesundheits@@
gesundheitswesen
get
get@@
getä@@
getan
getary
getau@@
getauscht
getei@@
geteilt
getestet
gether
getö@@
getötet
getr@@
getra@@
getragen
geträn@@
getränke
getränken
getre@@
getrei@@
getrenn@@
getrennt
getrennte
getreten
getroffen
gets
getting
gew@@
gewach@@
gewachsen
gewählt
gewählte
gewählten
gewähr
gewähr@@
gewähren
gewährleisten
gewährleistet
gewährleistung
gewährt
gewal@@
gewalt
gewaltige
gewand@@
gewann
gewässer
gewer@@
gewerk@@
gewerkschaften
gewesen
gewi@@
gewicht
gewidmet
gewiesen
gewin@@
gewinn
gewinn@@
gewinne
gewinnen
gewinner
gewinnt
gewis@@
gewisse
gewissen
gewisser
gewo@@
gewöh@@
gewöhn@@
gewöhnlich
gewöhnliche
gewöhnlichen
gewohnt
gewonnen
geworden
gewünscht
gewünschte
gewünschten
gezeigt
gezi@@
gezielt
gezielte
gezogen
gezwungen
gf@@
gg@@
ggf.
gging
ggle
ggling
gh
gh@@
gher
ghly
ghout
ghs
ght
ght@@
ght-@@
ghted
ghter
ghtful
ghts
ghty
gi
gi@@
gia
giant
gible
gibr@@
gibraltar
gibt
gie@@
gieb@@
gieren
giert
gift
gifts
gig
gig@@
gigan@@
gige
gigen
gik
gil@@
gilt
gim@@
gimp
gin
ging
gingen
gio
giore
giov@@
giovanni
gipf@@
gipfel
gipfel@@
gir@@
girl
girls
gische
gischen
gitar@@
give
given
gives
giving
gkeit
gkeiten
gkeits@@
gl
gl.
gl@@
gla@@
glad
gladly
glan@@
glän@@
glas
glas@@
glass
glau@@
glaub@@
glaube
glauben
gläubi@@
glaubt
gle
glei
glei@@
gleich
gleich@@
gleichbehandlung
gleiche
gleichen
gleicher
gleichermaßen
gleichgewicht
gleichheit
gleichnam@@
gleicht
gleichzeitig
glet@@
gli
gli@@
glich
glich@@
gliche
glichen
glicher
glichkeit
glichkeiten
glieder@@
glo@@
glob@@
global
globale
globalen
globaler
globalisation
globalisierung
globalization
globally
globe
glu
glu@@
glück
glück@@
glücklich
glücks@@
glückwunsch
gm
gm@@
gmbh
gmo
gmos
gn
gn@@
gnen
gnet
gni
gni@@
gnific@@
gnis
gnis@@
gnisse
gnissen
gno@@
gnome
gnu
gnü
go
go@@
gö@@
goal
goals
god
goes
going
gol@@
gold
gold@@
golden
golf
golf@@
golfplatz
gom@@
gon
gon@@
gone
gonz@@
goo@@
good
good@@
goods
google
gor@@
gord@@
gos
gosla@@
got
got@@
göteb@@
göteborg
goth@@
gothic
gott
gotten
gottes
gour@@
gourmet
govern@@
governance
governed
governing
government
governmental
governments
gp
gp@@
gps
gr@@
gra
gra@@
grä@@
grab@@
graben
grace
grad
grade
grades
gradu@@
gradual
gradually
graduate
graf@@
grafi@@
grafik
grafik@@
grafiken
grafischen
grain
gram
gram@@
gramm
gramm@@
grammatically
gran
gran@@
granada
grand
grand@@
grande
grant
granted
granting
grants
graph@@
graphi
graphi@@
graphic
graphical
graphics
graphy
grass
grass@@
grat@@
grateful
grati@@
gratis
gratitude
gratuli@@
gratulieren
graus@@
grav@@
grave
gravier@@
graz
gre@@
great
great@@
greater
greatest
greatly
greece
greek
green
green@@
greenhouse
greens
greg@@
grei
grei@@
greif@@
greifen
greift
gremien
gremium
grenz@@
grenze
grenzen
grenzt
grenzüberschrei@@
grenzüberschreitende
grenzüberschreitenden
grenzung
gres@@
gress
gressive
grew
grey
gri
gri@@
grid
griech@@
griechenland
griechenlands
griechische
griechischen
griff
griffen
grö
gro@@
grö@@
grös@@
gross
gross@@
größ@@
großartige
großartigen
großbritannien
große
größe
großem
großen
größen
größen@@
großer
größer
größer@@
größere
größeren
größerer
größeres
großes
größt@@
größte
großteil
größten
größter
großzügi@@
großzügig
großzügige
ground
ground@@
grounds
group
group@@
groups
grow
grow@@
growing
grown
grows
growth
gru
gru@@
grü@@
grün
grün@@
grund
grund@@
grunde
gründe
gründen
gründer
gründete
grundlage
grundlagen
grundlegend
grundlegende
grundlegenden
grundlegender
gründlich
grundrechte
grundsatz
grundsätz@@
grundsätze
grundsätzen
grundsätzlich
grundsätzliche
grundstück
gründung
gründungs@@
grüne
grünen
grupp@@
gruppe
gruppen
gruppen@@
gs
gs@@
gst
gste
gsten
gt
gt@@
gte
gten
gter
gu
gü
gu@@
gü@@
guant@@
guantánam@@
guantánamo
guar@@
guarant@@
guarantee
guaranteed
guaranteeing
guarantees
guard
guatem@@
guatemala
gue
gues
guest
guest@@
guests
gui@@
guidance
guide
guided
guidelines
guides
guiding
guil@@
guilty
guine@@
guinea
guitar
gul@@
gül@@
gulf
gültig
gültige
gültigen
gültigkeit
gum@@
gun
gün@@
gung
gungen
gungs@@
güns@@
günstig
günstige
günstigen
günstiger
gur@@
gut
gut@@
gute
gutem
guten
guter
güter
güter@@
gutes
guy
guys
gv@@
gvo
gy
gy@@
gym
gyp@@
h
ĥ
ḥ
h.
h@@
h-@@
ｈ@@
ħ@@
Ħ@@
ḥ@@
Ḥ@@
ḫ@@
Ḫ@@
h-0@@
ha
hä
ha@@
ha-@@
hä@@
haag
haar@@
hab
hab@@
habe
haben
haber
habit@@
habt
hack@@
had
haf@@
hafen
häfen
hafen@@
haft
haft@@
hafte
haften
hafter
haftet
haftung
hague
hai
hai@@
hair
hair@@
hairdryer
haiti
hal@@
häl@@
halb
halb@@
halbe
halben
halbinsel
half
half-@@
hälfte
hall
hall@@
halle
halls
halt
hält
halt@@
halte
halten
halten@@
haltenen
halter
haltest@@
haltestelle
haltet
halts
halts@@
haltung
haltungs@@
ham
ham@@
hamas
hamburg
hamp@@
han
han@@
hän@@
hand
hand@@
hand-@@
händ@@
handbuch
hände
handed
handel
handel@@
handeln
handels
handels-
handels@@
handelt
händen
handhabung
handic@@
handle
handled
händler
handling
handlung
handlungen
handlungs@@
hands
handy
hang
hang@@
hänge
hängen
hängi@@
hängt
hanno@@
hannover
hans
hans@@
happ@@
happen
happened
happening
happens
happiness
happy
haps
har@@
här@@
harbour
hard
hard@@
hard-@@
harder
hardly
hardt
hardware
häre
harm
harm@@
harmful
harmon@@
harmonie
harmonisation
harmonise
harmonised
harmony
harry
harsh
hart
hart@@
harte
harten
harv@@
has
has@@
hase
hast
hat
hat@@
hatt@@
hatte
hätte
hatten
hätten
hau@@
häu@@
häufig
häufig@@
häufiger
häufigsten
haup@@
haupt
haupt@@
hauptbahnhof
haupts@@
hauptsächlich
hauptstadt
hauptziel
haus
haus@@
häus@@
hause
hausen
häuser
häusern
hauses
haush@@
haushal@@
haushalt
haushalte
haushalts
haushalts@@
haut
haut@@
hav
hav@@
have
haven
having
hay@@
haz@@
hazardous
hd
hd@@
he
he@@
head
head@@
headed
heading
headquarters
heads
heal@@
healing
health
health@@
healthcare
healthy
hear
hear@@
heard
hearing
heart
hearts
heat
heated
heath@@
heathrow
heating
heav
heav@@
heavi@@
heavily
heavy
heb@@
heben
heber@@
hebt
hec@@
hectar@@
hectares
hed
hef@@
hei@@
heidel@@
heidelberg
height
heik@@
heil@@
heili
heili@@
heiligen
heim
heim@@
heimat
heimat@@
heimatland
heimer
heimischen
hein@@
heinrich
heirat@@
heißen
heißt
heit
heit@@
heiten
heitlich
heitliche
heits@@
heiz@@
heizung
hektar
hel@@
held
helfen
heli@@
helicop@@
hell
hellen
help
help@@
helped
helpf@@
helpful
helping
helps
hels@@
helsin@@
helsinki
hem@@
hemm@@
hen
hen@@
hence
henry
her
her@@
heran@@
heraus
heraus@@
herausforderung
herausforderungen
herausra@@
herausragende
herauszu@@
herauszufinden
herb@@
herbei@@
herberge
herbst
here
herein
heres
hergestellt
heritage
herkömm@@
herkömmlichen
herkunft
herkunfts@@
herman
hero@@
herr
herr@@
herren
herrliche
herrlichen
herrn
herrsch@@
herrschaft
herrschen
herrschenden
herrscht
herself
herstell@@
herstellen
hersteller
herstellern
herstellung
herum
herum@@
herunter
herunter@@
heruntergeladen
herunterladen
hervor
hervor@@
hervorgehoben
hervorheben
hervorra@@
hervorragend
hervorragende
hervorragenden
hervorzuheben
herz
herz@@
herzeg@@
herzegovina
herzegowina
herzen
herzlich
herzlichen
herzustellen
hes
hes@@
hesitate
het
hetero@@
heu
heu@@
heute
heutige
heutigen
heutzutage
hi
hi@@
hidden
hide
hielt
hielten
hier
hier@@
hierarch@@
hierbei
hierfür
hierher
hiermit
hierzu
high
high@@
high-@@
higher
highest
high-level
highligh@@
highlight
highlighted
highlighting
highlights
highly
high-quality
high-speed
high-tech
highway
hiking
hil@@
hilfe
hilfen
hilfrei@@
hilfreich
hilfs@@
hilfsbereit
hilft
hill
hill@@
hills
hilton
him
him@@
himm@@
himmel
himself
hin
hin@@
hinaus
hinaus@@
hinausgehen
hinblick
hinder@@
hindern
hindernis
hindernisse
hindu
hindu@@
hine
hinein
hing
hing@@
hingegen
hingewiesen
hings
hinnehmen
hinsicht
hinsichtlich
hinten
hinter
hinter@@
hintergrund
hintergrund@@
hinterlassen
hinweg
hinweis
hinweise
hinweisen
hinzu
hinzu@@
hinzufügen
hinzugefügt
hinzuweisen
hinzuzufügen
hion
hip
hir
hir@@
hire
his
his@@
hist@@
histor@@
historic
historical
historisch
historische
historischen
historischer
history
hit
hit@@
hitler
hiv
hl
hn
hn@@
hne
ho
hö
ho@@
hö@@
hob@@
hoc
hoch
hoch@@
höch@@
hochrangi@@
hochschul@@
hochschule
hochschulen
höchst
höchst@@
höchste
höchstem
höchsten
höchstens
höchster
hochwer@@
hochwertige
hochwertigen
hochzeits@@
hof
hof@@
hoff@@
hoffe
hoffen
hoffentlich
hoffnung
hoh
hoh@@
höh@@
hohe
höhe
hohem
hohen
höhen
höhen@@
höhep@@
höhepunkt
hoher
höher
höher@@
höhere
höheren
höherer
hohes
hol@@
hold
holder
holders
holding
holds
hole
holen
holes
holi@@
holiday
holidays
holl@@
holland
hollywood
holoc@@
holt
holung
holy
holz
holz@@
hom@@
home
home@@
homepage
homes
homo@@
hon@@
honest
hong
hong@@
hongkon@@
hongkong
honor
honour
honourable
hood
hop@@
hope
hoped
hopefully
hopes
hoping
hor@@
hör@@
höre
hören
horiz@@
horizont@@
horizontal
hormon@@
horn
horny
horse
horses
hört
hosp@@
hospit@@
hospital
hospitality
hospitals
host
host@@
hosted
hostel
hostel@@
hostels
hostelsclub
hosti@@
hosting
hosts
hot
hot@@
hotel
-hotel
hôtel
hotel@@
hotels
hotelzimmer
hou@@
hour
hours
hous@@
house
househol@@
household
households
houses
housing
how
-how
how@@
however
hows
hp
hr
hr@@
hren
hrt
hs
ht
ht@@
html
htt@@
http
hu
hu@@
hü@@
hub
hub@@
hüb@@
hubschrau@@
huge
hügel
hum@@
human
human@@
humane
humanit@@
humanitäre
humanitären
humanitarian
humanity
humans
hund
hund@@
hunde
hunder@@
hundert
hundert@@
hunderte
hundred
hundreds
hung
hung@@
hungarian
hungary
hunger
hunting
hur@@
hus@@
husband
hussein
hütung
hy@@
hybri@@
hybrid
hyde
hydrau@@
hydraulic
hydro@@
hygi@@
hygiene
hyper@@
hypo@@
hypoth@@
hyth@@
hz
i
ɪ
ı
í
Í
ì
Ì
İ
î
Î
ï
Ï
ǐ
ī
ĩ
į
ɨ
ỉ
ị
i.
i.@@
i.e.
i@@
i-@@
Ｉ@@
ɪ@@
ı@@
í@@
Í@@
ì@@
Ì@@
İ@@
î@@
Î@@
ï@@
Ï@@
ǐ@@
ĭ@@
ī@@
Ī@@
ĩ@@
į@@
ɨ@@
ỉ@@
ị@@
ia
ía
ia@@
ial
ian
ib@@
iber@@
ibi@@
ibiza
ibm
ic
ic@@
ic-@@
ica
ical
ically
icals
ican
ice
ice@@
icecat
icel@@
iceland
ices
ich
ich@@
icht
ichte
ichts
ici
ici@@
icious
icip@@
ick
ick@@
icken
icker
icking
icks@@
ickt
ico
icon
icons
icop@@
icro@@
ics
icul@@
icy@@
id
id@@
ida
idable
idance
ide
ide@@
idea
ideal
ideale
idealen
idealer
ideally
ideas
idee
ideen
iden
iden@@
identi
identi@@
idential
identical
identification
identified
identifizieren
identify
identifying
identität
identity
idents
ideological
ideologie
ideology
ides
idi@@
idity
idly
ido
ids
idsch@@
idyl@@
idyllic
ie
ie@@
ie-@@
ieb
ieb@@
ied
ied@@
iedelt
ieden
ieder@@
ief
ief@@
iegen
iel
iel@@
ield
ielt
ien
ien@@
ient
ier
ier@@
iere
ieren
ierend
ierende
ierenden
iern
iert
ierte
ierten
ierter
iertes
ierung
ierungen
ierungs@@
ies
ießen
iev
iev@@
ieve
if
if@@
ifa
ig
ig@@
iga
igar@@
igc
ige
igem
igen
iger
iges
igkeit
igkeiten
ign
ign@@
ignano
ignor@@
ignore
ignored
ignorieren
igt
igte
igten
igung
igungen
igungs@@
ih@@
ihm
ihn
ihnen
ihood
ihr
ihr@@
ihre
ihrem
ihren
ihrer
ihrerseits
ihres
ii
ii.
ii@@
iii
ij@@
ik
ik@@
ika
iken
iko
il
il@@
il-@@
ila
ilater@@
ilation
ild
ile
iled
iler
ilers
iles
ilet
ili
ili@@
iling
ilit@@
ility
ill
ill@@
ill-@@
illa
illar
ille
illed
illeg@@
illegal
illegale
illegalen
illegaler
illegally
iller
illi
illi@@
illing
illion
illness
ills
illu@@
illumin@@
illustr@@
ilo
ilom@@
ils
ilt
ily
im
im@@
ima
ima@@
imag@@
image
images
imagin@@
imagination
imagine
imaging
imbalances
ime
imes
imf
imin@@
iminary
imm@@
immedi@@
immediate
immediately
immen@@
immense
immer
immer@@
immerhin
immern
immigrants
immigration
immo
immobili
immobili@@
immobilien
immobilien@@
immun@@
immune
immunity
imo
imp@@
impact
imper@@
imperative
imperi@@
imperial
impetus
impf@@
impl@@
implement
implement@@
implementation
implemented
implementi@@
implementierung
implementing
implic@@
implications
implies
impor@@
import
import@@
importance
important
importantly
imported
imports
impose
imposed
imposing
impossible
impres@@
impressed
impression
impressive
impris@@
impro@@
improve
improved
improvement
improvements
improves
improving
impul@@
impulse
in
-in
ín
in@@
in-@@
-in-@@
ina
inability
inadequate
inal
inanspruchnahme
inappropriate
inary
inas
inated
ination
inations
inau@@
inbegriffen
inc
inc.
inc@@
incap@@
ince
incen@@
incentive
incentives
inch
inci
inci@@
incident
incidents
inclu
inclu@@
include
included
includes
including
inclusion
inclusive
income
incomes
incoming
incomplete
incor@@
incorpor@@
incorporate
incorporated
incorrec@@
incorrect
incre@@
increas@@
increase
increased
increases
increasing
increasingly
incredi@@
incredible
incredibly
incurred
ind
ind@@
indeed
indem
indep@@
independ@@
independence
independent
independently
in-depth
inder@@
indern
indert
index
index@@
indi
indi@@
india
indian
indic@@
indicate
indicated
indicates
indicating
indication
indications
indicator
indicators
indien
indigenous
indire@@
indirect
indirectly
indirekt
indischen
indisp@@
indispens@@
indispensable
individu
individu@@
individual
individually
individuals
individuell
individuelle
individuellen
indon@@
indones@@
indonesia
indonesien
indoor
indu
indu@@
indul@@
industri
industri@@
industrial
industrie
industrie@@
industriel@@
industrielle
industriellen
industrien
industries
industry
ine
ine@@
ined
ineffective
inely
inen
inen@@
inequ@@
inequalities
inequality
iner
iner@@
ines
iness
inet
inev
inev@@
inevitable
inevitably
inf@@
infected
infection
infin@@
infineon
infl@@
inflation
influ@@
influence
influenced
influences
influential
info
info@@
infolge
inform
inform@@
informal
information
information@@
informationen
informations
informations-
informations@@
informationsaustausch
informationsgesellschaft
informative
informed
informellen
informieren
informiert
infos
infr@@
infra@@
infrastructure
infrastructures
infrastruktur
infrastruktur@@
infrastrukturen
infrin@@
infringement
ing
ing-
ing@@
ing-@@
inge
ingen
ingenie@@
ingent
inger
inger@@
ingham
ingly
ingo
ingrad
ingredi@@
ingredients
ings
ingt
ington
ingu@@
ingung
ingungen
ing-up
inhab
inhab@@
inhaber
inhabit@@
inhabitants
inhaf@@
inhal@@
inhalt
inhalte
inhalten
inhaltlich
inhalts@@
inher@@
inherent
in-house
ini
ini@@
inia
inian
inien
inien@@
ining
inion
inions
inische
inischen
initi
initi@@
initial
initially
initiate
initiated
initiativ@@
initiative
initiativen
initiatives
inity
inj@@
injection
injured
injury
ink
ink@@
inken
inkl
inklusive
inkrafttreten
inland
inmitten
inn
inn@@
inne
innen
innen@@
innenhof
innenstadt
inner
inner@@
innere
inneren
inneres
innerhalb
inners
inning
inno@@
innocent
innov@@
innovation
innovationen
innovations
innovations@@
innovative
innovativen
innovativer
innsbru@@
innsbruck
ino
ino@@
inos
input
inqu@@
inquiry
ins
ins@@
insbesondere
insel
insel@@
inseln
inser@@
insert
inserted
insgesamt
insi@@
inside
insight
insist
insofern
inson
insp@@
inspec@@
inspection
inspections
inspek@@
inspir@@
inspiration
inspired
inspiri@@
inspiriert
inst@@
instability
install
install@@
installation
installations
installations@@
installed
installer
installi@@
installieren
installiert
installing
instance
instances
instand@@
instant
instantly
instanz
instead
institu
institu@@
institut
institute
institutes
institution
institution@@
institutional
institutionelle
institutionellen
institutionen
institutions
instre@@
instru
instru@@
instruc@@
instruction
instructions
instrument
instrument@@
instrumente
instrumenten
instruments
insufficient
insula
insurance
int
int@@
int-@@
integ@@
integr@@
integral
integrate
integrated
integrating
integration
integrations@@
integri@@
integrieren
integriert
integrierte
integrierten
integrität
integrity
intel
intel@@
intellec@@
intellectual
intellektu@@
intelli
intelli@@
intelligence
intelligent
intelligente
inten@@
intend
intended
intends
intense
intensi@@
intensity
intensiv
intensive
intensiven
intensiver
intent
intention
intentions
inter
inter@@
inter-@@
interaction
interactive
interess@@
interessant
interessante
interessanten
interesse
interessen
interessen@@
interessi
interessi@@
interessieren
interessiert
interest
interest@@
interested
interesting
interests
interface
interfaces
interfere
interference
intergovernmental
interie@@
interim
interinstitutional
interior
intermedi
intermedi@@
intermediate
intern
intern@@
internal
internally
internation@@
international
internationale
internationalen
internationaler
internationales
internationally
interne
internen
internet
internet@@
internet-@@
internetanschluss
internetseite
internetseiten
internetzugang
interoper@@
interpre@@
interpret
interpretation
interpreted
interrupted
inters
interven@@
intervene
intervention
interventions
interview
interviews
intim@@
intimate
intly
into
intoler@@
intro@@
introduc@@
introduce
introduced
introduces
introducing
introduction
ints
intu@@
intui@@
intuitive
inu
inu@@
inv
inv@@
invali@@
invasion
inven@@
invent@@
invented
inventory
inves@@
invest
invest@@
invested
investi
investi@@
investieren
investiert
investig@@
investigate
investigated
investigation
investigations
investing
investition
investitionen
investitions@@
investitionsbank
investment
investment@@
investments
investor
investoren
investors
invitation
invite
invited
invites
inviting
invo@@
invoice
invol@@
involve
involved
involvement
involves
involving
iny
inzwischen
io
io@@
ion
ion@@
ions
ionship
ior
iors
ious
ip
ip@@
ip-@@
iphone
ipo@@
ipod
ir
ir@@
ira
ira@@
irable
irak
irak@@
irakischen
iran
iran@@
iranian
iranischen
iraq
iraq@@
iraqi
irc
ire
ired
ireland
ires
irgend@@
irgendeine
irgendeiner
irgendwann
irgendwelche
irgendwie
irgendwo
iri@@
iring
iris@@
irische
irischen
irish
irland
iron
iron@@
irr@@
irre@@
irregul@@
irregularities
irrespective
irresponsible
irs
iry
is
is@@
is-@@
isa
isation
isc@@
isch
isch@@
isch-@@
ische
ischem
ischen
ischen@@
ischer
ischer@@
ischerweise
isches
isco
ise
ised
isely
isen
isen@@
iser
ises
ish
ish@@
ished
ishes
ishing
ishment
isi@@
isieren
isiert
isierte
isierten
isierung
isine
ising
ision
isite
isition
isl@@
islam
islam@@
islamic
islamischen
island
islands
islat@@
ism
ismen
ismo
isms
ismus
ismus@@
isn
iso
isol@@
isolated
isolation
isoli@@
ison
ison@@
isons
isra@@
israel
israel@@
israeli
israelis
israelische
israels
iss
iss@@
isse
isse@@
issen
issu
issu@@
issue
issued
issues
issuing
ist
ist@@
ista
istan
istan@@
istanbul
iste
isten
ister
isti@@
istic
istic@@
istics
istik
istisch
istische
istischen
istischer
istri@@
istry
ists
it
it@@
it-@@
ita
itä
itä@@
itable
itably
itage
ital
ital@@
itali@@
italia
italian
italien
italien@@
italienische
italienischen
italiens
italy
itan@@
itar
itar@@
ität
itate
itäten
itation
itations
itäts@@
itätsprin@@
ite
ité
ited
itely
item
itement
items
iten
iten@@
iter
ites
iti
itim@@
itiner@@
iting
ition
itly
itment
ito
its
itself
itt
itt@@
itte
itted
ittee
itten
itting
ittle
itts
itu@@
ity
ity@@
ity-@@
itz
ium
iv
iv@@
ive
iw@@
iwf
ix
ix@@
iz
iz@@
ization
ize
ized
izer
izi
izi@@
izing
izz@@
izza
j
ʲ
ĵ
j.
j@@
ʲ@@
ĵ@@
ja
ja@@
jä@@
jac@@
jacent
jack
jack@@
jackson
jacques
jacuzzi
jag@@
jahr
jahr@@
jähr@@
jahre
jahrel@@
jahren
jahres
jahres@@
jahrest@@
jahrestag
jahreszeit
jahrhunder@@
jahrhundert
jahrhunderte
jahrhunderten
jahrhunderts
jähri@@
jährige
jährigen
jähriger
jährlich
jährliche
jährlichen
jahrzeh@@
jahrzehnt
jahrzehnte
jahrzehnten
jak@@
jam@@
james
jan
jan@@
janu@@
januar
january
jap
jap@@
japan
japanese
japanische
japanischen
japans
jar@@
jarz@@
jarzemb@@
jarzembowski
jas@@
jav@@
java
java@@
javascript
jazz
je
je@@
jean
jean-@@
ject
jects
jed@@
jede
jedem
jeden
jedenfalls
jeder
jedermann
jederzeit
jedes
jedoch
jeg@@
jegliche
jeglichen
jeglicher
jeher
jek@@
jemals
jemand
jemanden
jen@@
jene
jenem
jenen
jener
jenige
jenseits
jeop@@
jeopardi@@
jer@@
jerus@@
jerusalem
jes@@
jesolo
jesus
jet
jet@@
jetzigen
jetzt
jeweilige
jeweiligen
jeweils
jewish
jews
ji
ji@@
jim@@
jing
jk
jn
jo
jo@@
job
jobs
joh
joh@@
johann
johann@@
johannes
johannes@@
johannesburg
john
john@@
join
joined
joining
joint
jointly
jon@@
jones
jor@@
jord@@
jordan
josé
jose@@
josef
joseph
jour
jour@@
journ@@
journal
journalist
journalisten
journalists
journey
joy
jp@@
jpg
js
ju
ju@@
jü@@
juan
jub@@
jubil@@
jud@@
juden
judg@@
judge
judged
judges
judgment
judi@@
judicial
judiciary
jüdischen
jugend
jugend@@
jugendher@@
jugendherberge
jugendliche
jugendlichen
jugosla@@
juice
juli
juli@@
july
jump
jun@@
junc@@
junction
june
jung@@
jüng@@
junge
jungen
junger
jüngste
jüngsten
juni
juni@@
junior
junk@@
jur@@
jür@@
juris@@
jurisdiction
juristische
juristischen
jury
jus@@
just
just@@
justi@@
justice
justification
justified
justify
justiz
justiz@@
k
ĸ
k.
k@@
k-@@
-k@@
ĸ@@
ķ@@
ḳ@@
ka
kä
ka@@
ka-@@
kä@@
kab@@
kabel
kabel@@
kaff@@
kaffe@@
kaffee
kais@@
kaiser
kak@@
kal@@
käl@@
kalender
kali@@
kalifornien
kalische
kalischen
kalten
kam
kam@@
kambod@@
kamen
kamer@@
kamera
kameras
kamin
kammer@@
kamp@@
kampagne
kampagnen
kampf
kampf@@
kämpf@@
kämpfen
kan
kan@@
kanada
kanal
kanäle
kandi@@
kandidaten
kanen
kaner
kanische
kanischen
kann
kann@@
kannst
kanz@@
kap
kap@@
kapaz@@
kapazität
kapazitäten
kapit@@
kapital
kapital@@
kapitalismus
kapitel
kar@@
karel
kari@@
karl
karls@@
karlsruhe
karri@@
karriere
kart@@
karte
karten
karten@@
kas
kas@@
käse
kass@@
kast@@
kat
kat@@
katalog
katastro@@
katastrophal@@
katastrophe
katastrophen
katastrophen@@
kategorie
kategorien
kath@@
kathed@@
katho@@
katoren
kau@@
kauf
kauf@@
kaufen
käufer
kauft
kaum
kaz@@
kb
kde
ke
ke@@
ke-@@
ked
keen
keep
keeping
keeps
kehr
kehr@@
kehren
kehrt
kei@@
kein
kein@@
keine
keinem
keinen
keiner
keinerlei
keinesfalls
keineswegs
keit
keit@@
keiten
keits@@
kel
kel@@
kell@@
keller
keln
ken
ken@@
kenn@@
kenne
kenne@@
kennen
kennen@@
kennt
kenntnis
kenntnisse
kennzeichnung
kenya
kept
ker
ker@@
keram@@
kern
kern@@
kernel
kernkraft@@
kers
kes
kes@@
kest@@
ket
ket@@
ketball
kette
kev@@
key
key@@
keyboard
keyn@@
keys
keyword
kg
kh@@
ki
ki@@
kid@@
kids
kil@@
kill
killed
killing
kilom@@
kilomet@@
kilometer
kilometers
kilometres
kim
kin
kin@@
kind
kind@@
kinder
kinder@@
kinderbetreuung
kindern
kindes
kinds
king
king.com
king@@
kingdom
kinnock
kino
kir@@
kirche
kirchen
kirchen@@
kirk
kis@@
kit
kit@@
kitchen
kitchen@@
kitchenette
kits
kking
kl@@
kla@@
kland
klang@@
klar
klar@@
klär@@
klare
klaren
klären
klarer
klares
klarheit
klärung
klass@@
klasse
klassen
klassi@@
klassische
klassischen
klaus
klausel
kle@@
klei@@
kleidung
klein
klein-
klein@@
kleine
kleinen
kleiner
kleinere
kleineren
kleines
kleinste
klen
kler
kli@@
klick
klicken
klim@@
klima
klima@@
klimaanlage
klimatisi@@
klimawandel
klimawandels
klin@@
kling@@
klingen
klingt
klo@@
kloster
klu
klu@@
kluft
klus
klusi@@
klusive
km
km@@
kmu
kn@@
knapp
kne@@
knei@@
knew
kni@@
kno@@
know
know@@
know-how
knowing
knowled@@
knowledge
known
knows
knü@@
ko
kö
ko@@
kö@@
koalition
koch@@
kodex
koennen
koh
koh@@
kohär@@
kohäsionsfonds
kohle
kohlen@@
kok
kok@@
kol@@
köl@@
koll
koll@@
kolleg@@
kollege
kollegen
kollegin
kolleginnen
kollek@@
kollektion
köln
koloni@@
kolonial@@
kolum@@
kolumbien
kom
kom@@
kombin@@
kombination
kombinieren
kombiniert
komfort
komfort@@
komfortabel
komfortable
komfortablen
komit@@
komm@@
kömm@@
kommand@@
kommando
komme
kommen
kommend
kommende
kommenden
kommens
komment@@
kommentar
kommentare
kommerzi@@
kommerzielle
kommerziellen
kommiss@@
kommissar
kommission
kommission@@
kommissions@@
kommt
kommun@@
kommuni@@
kommunik@@
kommunikation
kommunikation@@
kommunikations@@
kommunismus
kommunistischen
kommunizieren
komp@@
kompati@@
kompatibel
kompet@@
kompetenz
kompetenz@@
kompetenzen
kompl@@
komplett
komplett@@
komplette
kompletten
komplex
komplex@@
komplexe
komplexen
komplexer
komplexität
komplizi@@
kompliziert
komplizierte
kompon@@
komponente
komponenten
kompro@@
kompromis@@
kompromiss
kompromiss@@
kon
kon@@
kön@@
kondi@@
konfer@@
konferenz
konferenz-
konferenz@@
konferenzen
konfigur@@
konfiguration
konfigurations@@
konfiguriert
konfli@@
konflikt@@
konflikte
konflikten
konflikts
konfron@@
konfrontiert
kong
kongo
kongres@@
kongress
kongress@@
köni@@
könig
königrei@@
königreich
konjunk@@
konjunktur@@
konkre@@
konkret
konkrete
konkreten
konkreter
konkur@@
konkurren@@
konkurrenz
konkurri@@
könne
können
könnt
konnte
könnte
konnten
könnten
konom@@
kons@@
konsens
konsequ@@
konsequent
konsequenz
konsequenzen
konserv@@
konsolidi@@
konstitu@@
konstru@@
konstruk@@
konstruktion
konstruktive
konstruktiven
konsul@@
konsult@@
konsum
konsum@@
kontak@@
kontakt
kontakt@@
kontakte
kontaktieren
konten
kontext
kontextu@@
kontin@@
kontinent
kontinent@@
kontinents
kontinu@@
kontinuierlich
kontinuierliche
kontinuität
konto
kontra@@
kontro@@
kontrol@@
kontroll@@
kontrolle
kontrollen
kontrollieren
kontrolliert
konvent
konvention
konvention@@
konver@@
konz@@
konzentr@@
konzentration
konzentri@@
konzentrieren
konzentriert
konzep@@
konzept
konzepte
konzeption
konzer@@
konzern
konzern@@
konzert
konzerte
konzip@@
konzipiert
kooper@@
kooperation
kooperations@@
koordin@@
koordination
koordiniert
koordinierung
kop@@
kopenhagen
kopf
kopf@@
kopie
kopien
kopieren
kor@@
kör@@
kore@@
korea
korean
körper
körper@@
körpers
korre@@
korrekt
korrekte
korrektur
korrektur@@
korrigi@@
korrigieren
korrigiert
korruption
kos
kosme@@
koso@@
kosovo
kost@@
köst@@
kosten
kosten@@
kostenfrei
kostenfreien
kosteng@@
kostengün@@
kostenlos
kostenlose
kostenlosen
kostet
kostspiel@@
kov@@
kr@@
kra@@
krä@@
kräf@@
kraft
kraft@@
kräfte
kräften
krak@@
krank@@
kranken@@
krankenhaus
krankheit
krankheiten
krati@@
kre@@
kreativ@@
kreative
kreativen
kreativität
krebs
krebs@@
kredi@@
kredit@@
kredite
kreditkarte
krei
krei@@
kreis
kreis@@
krem@@
kreu@@
kreuz@@
kri
kri@@
krieg
krieg@@
kriege
krieges
kriegs@@
krimin@@
kriminalität
kris@@
krise
krisen
krisen@@
kristall@@
kriterien
kriti@@
kritik
kritisch
kritische
kritischen
kritisiert
kro@@
kroati@@
kroatien
kron@@
krupp
ks
ks@@
kt
kt@@
kte
kten
ktion
ktion@@
ktionen
ktions@@
ktop
ktor
ktur
ktur@@
ku
kü
ku@@
kü@@
kub@@
kuba
küche
küchen@@
küh@@
kühl@@
kühlschrank
kuk@@
kuka
kul@@
kuli
kuli@@
kulin@@
kultur
kultur@@
kulturelle
kulturellen
kultureller
kulturen
kum@@
kümmern
kümmert
kun@@
kün@@
kund@@
kunde
kunden
kunden@@
kündigen
kunft
kunft@@
künfte
künften
künftig
künftige
künftigen
kunfts@@
kuns@@
kunst
kunst@@
künst@@
künstler
künstler@@
künstlerischen
künstlern
kunststoff@@
kupf@@
kur@@
kür@@
kurdish
kurs
kurs@@
kurse
kurz
kurz@@
kürz@@
kurze
kürze
kurzem
kurzen
kurzer
kurzfris@@
kurzfristig
kürzlich
kus
kus@@
küste
küsten@@
kw
ky
ky@@
kyi
kyot@@
kyoto
kyoto-@@
l
ľ
Ľ
ɫ
ļ
ł
Ł
ɬ
l.
l@@
l-@@
-l@@
ｌ@@
ℓ@@
ĺ@@
ľ@@
Ľ@@
ɫ@@
ļ@@
ł@@
Ł@@
la
lä
la@@
la-@@
lä@@
lab
lab@@
label
labelling
labels
labor
labor@@
laboratory
labour
labview
lac@@
lächer@@
lack
lack@@
lacking
lacks
lad@@
laden
ladi@@
ladies
ladimir
lädt
ladung
lady
laeken
laf
lag
lag@@
laga
lage
läge
lagen
lägen
lagen@@
lager
lager@@
lagern
lagerung
lago
lags
lägt
laid
laim@@
laimed
lak@@
lake
lakes
lam
lam@@
lama
laman@@
lament@@
lamp@@
lamps
lamy
lan
lan@@
län@@
land
land@@
land-@@
lande
landen
lander
länder
länder@@
ländern
landes
landes@@
landing
ländischen
ländliche
lands
lands@@
landscap@@
landscape
landscapes
landschaft
landschaften
landwirten
landwirtschaft
landwirtschaftlichen
landwirtschafts@@
länen
lang
lang@@
läng@@
lange
länge
langem
langen
langer
länger
länger@@
längere
längeren
längerung
langes
langfristig
langfristige
langjährige
langjährigen
langs@@
langsam
längst
langt
langu
langu@@
language
languages
langwieri@@
langzeit@@
lanka
lanz@@
lanzarote
lap@@
laptop
lar@@
laration
lare
large
large-@@
largely
larger
large-scale
largest
lärm
lärm@@
lars
las
las@@
laser
laser@@
lash
lass
lass@@
läss@@
lasse
lassen
lassi
lassi@@
lässi@@
lässigkeit
läßlich
läßt
lassung
lassungen
last
last@@
lasten
lasting
lastly
lastung
lat@@
late
late@@
latein@@
lateinamerika
later
later@@
laterooms
laterooms.com
latest
latin
lation
latt
latt@@
latter
latvia
latz
lätz@@
lau@@
läu@@
laub
laub@@
läubi@@
laubnis
lauf
lauf@@
laufe
läufe
laufen
laufend
laufende
laufenden
läufi@@
läufig
läufigen
läuft
laufzeit
laun@@
launch
launched
launching
laundry
laur@@
laut
laut@@
lauten
lautet
lav
lav@@
law
law@@
lawful
laws
lawyer
lawyers
lay
lay@@
layed
layer
layers
laying
layout
lays
lcd
ld
ld@@
ldn
le
le@@
le-@@
lé@@
lea@@
lead
leader
leaders
leadership
leading
leads
leag@@
league
lean
lear@@
learn
learned
learning
learnt
least
leather
leave
leaves
leaving
leb
leb@@
lebanon
leben
leben@@
lebenden
lebens
lebens@@
lebensdauer
lebensmittel
lebensmittel@@
lebensmitteln
lebensqualität
lebt
lebte
lebten
lec@@
leck@@
led
led@@
leder@@
ledge
lediglich
lee
left
left-@@
leg
leg@@
legacy
legal
legally
lege
lege@@
legen
legend
legend@@
legendary
leger
legi@@
legisl@@
legislat@@
legislation
legislative
legitim@@
legitimacy
legitimate
legitimität
legs
legt
legte
legten
legung
legungs@@
leh
leh@@
lehen
lehne
lehnen
lehnt
lehnung
lehr@@
lehre
lehren
lehrer
lei
lei@@
leich@@
leicht
leicht@@
leichte
leichten
leichter
leid
leiden
leiden@@
leidenschaft
leider
leidet
leidung
leihen
leip@@
leipzig
leisch@@
leist@@
leiste
leisten
leister
leistet
leistung
leistungen
leistungs@@
leistungsfähigkeit
leisure
leit@@
leiten
leiter
leitet
leitlinien
leitung
leitungen
lek@@
lektion
lektu@@
lem
lem@@
lement
lements
len
len@@
lend
lending
leng@@
length
lengthy
lenken
lens
lenst@@
lenstoff@@
leon@@
leonardo
leone
leop@@
ler
ler@@
lern
lern@@
lernen
lernt
lers
les
les@@
lesen
leser
less
less@@
lessly
lesson
lessons
let
let@@
letes
letion
lets
lett@@
letter
letters
letting
lettland
letz@@
letzt@@
letzte
letzten
letztendlich
letzter
letztes
letztlich
leu@@
leucht@@
leur
leute
leuten
lev
lev@@
levard
level
levels
lex
lex@@
lexi@@
ley
ley@@
leyball
leys
lez
li
li@@
lia
liability
liable
lian
liance
liances
liation
lib@@
liban@@
libanon
liber@@
liberal
liberalen
liberalisation
liberalisierung
liberalization
liberals
liberties
liberty
libr@@
libraries
library
liby@@
libya
libyen
lic
lic@@
lica
lical
lication
licence
licences
licens@@
license
licensed
licenses
licensing
lich
lich@@
lich-@@
liche
lichem
lichen
licher
lichere
licherweise
liches
lichkeit
lichkeiten
lichkeits@@
lichste
lichsten
licht
licht@@
lichung
licity
lick
licy
lido
lie
lie@@
lieb
lieb@@
liebe
liebe@@
lieben
lieber
liebhaber
lieblings@@
liebt
liecht@@
liechtenstein
lied
lieder
liederung
lief
lief@@
liefer@@
lieferanten
liefern
liefert
lieferung
lieferungen
lieg@@
liegen
liegende
liegenden
liegt
lien
lier
lier@@
lieren
liers
liert
lierte
lierten
lierung
lierungen
lies
ließ
ließ@@
ließen
liesslich
ließt
liest
lieutenant
lif@@
life
life@@
life-@@
lifel@@
lifelong
lifer@@
liferation
lifestyle
lifetime
lift
lifting
lifts
lig
lig@@
liga
lige
ligen
ligence
liger
ligh@@
light
light@@
lighting
lights
ligkeit
lii@@
liikanen
lik
lik@@
likationen
like
liked
likely
likes
likewise
lim@@
limit
limitation
limitations
limited
limiting
limits
limm@@
lin
lin@@
linder
lindustrie
line
line-@@
linear
lined
linen
liner
lines
liness
ling
ling@@
linge
lingen
lings
lings@@
lingu@@
lingual
linguistic
linie
linien
lining
link
linke
linked
linken
linking
links
linu@@
linux
linux-@@
linz
lio
lion
liqu@@
liqui@@
liquid
liquidity
lis
lis@@
lisbon
lische
lischen
lish
lish@@
lished
liss@@
lissabon
list
list@@
liste
listed
listen
listen@@
listened
listening
listing
listings
lists
lit
lit@@
lität
litauen
liter@@
literally
literary
literatur
literature
lithu@@
lithuania
litt@@
litten
little
lity
liv@@
live
live-@@
lived
livel@@
lively
lives
livestock
living
liz@@
lizen@@
lizenz
lizenz@@
lizenzen
lizi@@
liziert
lj@@
ljub@@
lk@@
ll
ll@@
lla
lle
llen
ller
lli@@
lling
llon
llt
lo
lö
lo@@
lö@@
load
loaded
loading
loads
loan
loans
lob
lob@@
lobby
lobby@@
loc@@
local
locally
locals
locate
located
location
locations
loch
lock
lock@@
locked
lodge
log
log@@
logan
logic
logical
logik
login
logis@@
logistics
logistik
logistik@@
logo
logos
logs
loh@@
lohn@@
löhne
lohnt
lok@@
lokal
lokale
lokalen
lokaler
lom@@
lon
lon@@
lond@@
london
long
long@@
long-@@
longer
longest
long-term
loo@@
lood
look
looked
looking
looks
loose
lor
lor@@
lord
los
los@@
lös@@
löschen
lose
losen
lösen
losen@@
loser
loses
losigkeit
losing
losoph@@
loss
loss@@
lossen
lossen@@
lossene
lossenen
losses
lost
löst
lösung
lösungen
lösungs@@
lot
lot@@
loten
lots
lou@@
loud
louis
loun@@
lounge
louvre
lov
lov@@
love
loved
lovely
lovers
low
low@@
low-@@
lowak@@
lower
lower@@
lowest
lowing
lown
lows
loy@@
loyd
loyment
ls
ls@@
lst
lt
lt@@
ltd
ltd.
lte
lten
lu
lü
lu@@
lü@@
lub
luc@@
luck
lück@@
lücke
lücken
lucky
lud@@
ludwig
luf@@
luft
luft@@
luftfahrt@@
lufth@@
lufthansa
luftverkehrs@@
lug
lug@@
lugg@@
luggage
lul@@
lum@@
lun@@
lunch
lung
lungen
lungs@@
lus
lus@@
lush
luß
luß@@
lust
lux@@
luxem@@
luxembourg
luxemburg
luxuri@@
luxuriöse
luxurious
luxury
luxus
luxus@@
lv@@
ly
ly@@
ly-@@
lying
lymp@@
lyn@@
lyon
℔
m
m.
m.@@
m@@
m-@@
ṃ@@
m2
㎡
ma
mä
ma@@
ma-@@
má@@
mä@@
maastri@@
maastricht
mac
mac@@
maced@@
macedonia
mach@@
mäch@@
mache
machen
macher
machin@@
machine
machinery
machines
macht
macht@@
machte
machten
mächtigen
machung
macro@@
macro-@@
macroeconomic
mad
mad@@
mäd@@
madam
mädchen
made
madeira
madrid
mag
mag@@
magaz@@
magazin
magazine
magazines
magic
magical
magn@@
magne@@
magnetic
magnific@@
magnificent
mah@@
mäh@@
mahl@@
mahlzeiten
mai
mail
mail@@
mail-@@
mailand
mailing
mails
main
main@@
mainly
mains
mainstre@@
maintain
maintained
maintaining
maintains
mainten@@
maintenance
mais
maison
maj
maj@@
major
majority
mak@@
make
maker
makers
makes
making
mal
mal@@
malaga
málaga
malay@@
malaysia
male
malen
maler@@
malerischen
malerweise
mall@@
mallorca
malm@@
mals
malta
malware
man
man@@
män@@
manage
managed
management
management@@
manager
managers
manages
managing
manche
manchen
manchester
manchmal
mand@@
mandate
mandatory
mandri@@
mandriva
mang@@
mangel
mängel
mangel@@
mangelnde
mangelt
manhatt@@
manhattan
mani@@
manifest@@
manip@@
manipul@@
manipulation
mankind
mann
mann@@
männ@@
manner
männer
männern
mannheim
mannschaft
manoeu@@
mans
manship
mant@@
manu@@
manual
manually
manuel
manuell
manufac
manufac@@
manufactur@@
manufacture
manufactured
manufacturer
manufacturers
manufacturing
many
map
map@@
maps
mar
mar@@
mär@@
marbella
marble
marc
march
marco
mare
marg@@
margar@@
margin
margin@@
mari@@
maria
marie
marin@@
marina
marine
mario
maritime
mark
mark@@
marke
marked
marken
marken@@
market
market@@
market-@@
marketing
marketing@@
markets
markiert
marking
marks
markt
markt@@
märkte
märkten
marktes
marktwirtschaft
markus
marokko
marquis
marri@@
marriage
married
mars
mart@@
martin
martini
marvell@@
marx
mary
märz
mas
más
mas@@
masch@@
maschine
maschinen
maschinen@@
mask
mass
mass@@
mäß@@
massage
massages
maße
maßen
massen@@
maßgeb@@
maßgeblich
maßgeschnei@@
massi
massi@@
mäßig
mäßige
mäßigen
mäßigkeit
massiv
massive
massiven
maßnahme
maßnahmen
maßstab
maßstäbe
master
master@@
masters
mat@@
match
matched
matches
matching
materi
materi@@
material
material@@
materialien
materials
math
mathemati@@
mati@@
mation
matter
matters
matthias
mature
mau@@
mauer
mauern
maur@@
maus
maus@@
maustaste
max
max@@
maxim@@
maximal
maximale
maximalen
maximum
may
may@@
maybe
mayor
mazed@@
mb
mb@@
mbh
mbo@@
mbol
mc@@
mccar@@
md@@
me
me@@
mé@@
mead@@
meal
meals
mean
mean@@
meaning
meaning@@
meaningful
meaningfully
means
meant
meantime
meanwhile
meas@@
measur@@
measure
measured
measurement
measurements
measures
measuring
meat
mec@@
mech@@
mechan@@
mechanical
mechanis@@
mechanism
mechanismen
mechanisms
mechanismus
med
med@@
medi
medi@@
media
medic@@
medical
medicinal
medicine
medicines
medien
medien@@
medieval
medik@@
medikamente
medina
mediterran@@
mediterranean
mediterranen
medium
medium-@@
medium-sized
medizin
medizin@@
medizinische
medizinischen
mee
meer
meer@@
meerblick
meeres
meeres@@
meet
meeting
meetings
meets
meg@@
megapi@@
mehr
mehr@@
mehrere
mehreren
mehrerer
mehrfach
mehrheit
mehrheits@@
mehrmals
mehrwert
mehrwert@@
mehrwertsteuer
mehrwertsteuer@@
mei@@
meil@@
meilen
mein
mein@@
meine
meinem
meinen
meiner
meines
meint
meinung
meinungen
meinungs@@
meinungsäußerung
meist
meisten
meistens
meister
meister@@
meisterschaft
mel
mel@@
melden
meldung
meldungen
mem@@
member
members
membership
memor@@
memorable
memories
memory
men
men@@
menade
mend@@
menge
mengen
mens
mens@@
mensch
mensch@@
menschen
menschen@@
menschenrechte
menschenrechts@@
menschheit
menschliche
menschlichen
ment
ment@@
ment-@@
mental
mentation
mente
menten
mention
mentioned
mentioning
ments
menu
menü
menü@@
menus
menüs
mep
meps
mer
mer@@
merc@@
merchan@@
mercosur
mercure
mere
merely
merit
merits
merk
merk@@
merkel
merken
merkmale
mern
mers
mes
mes@@
mess@@
message
messages
messe
messe@@
messen
messenger
messer
messung
messungen
met
met@@
metal
metal@@
metall@@
metals
meter
metern
meters
metho@@
method
method@@
methode
methoden
methodology
methods
metres
metro
metro@@
mex@@
mexican
mexico
mexiko
mg
mhz
mi
mi@@
mia
mic
mic@@
mich
mich@@
michael
michel
michel@@
micro@@
micro-@@
microsoft
mid
mid@@
mid-@@
middle
midi
midst
mie
mieden
mien
mies
miet@@
mieten
mietung
mig@@
might
migr@@
migrant
migranten
migrants
migration
migrations@@
miguel
mike
mikro@@
mil@@
milan
milano
milch
milch@@
mild
mile
miles
mili
mili@@
milit@@
militär
militar@@
militär@@
militärischen
military
milk
mill
mill@@
millenni@@
millennium
milli
milli@@
milliar@@
milliarde
milliarden
million
millionen
millions
milo@@
milose@@
milosevic
min
min@@
mina
minal
mind
minded
minder@@
minderheit
minderheiten
mindest@@
mindestens
minds
mine
mined
miner@@
mineral
mineral@@
mines
ming
mingham
mini
mini@@
mini-@@
minibar
minim@@
minimal
minimum
mining
minist@@
minister
minister@@
ministerium
ministerpräsident
ministerpräsidenten
ministers
ministr@@
ministry
minor
minorities
minority
mins
minu@@
minute
minuten
minutes
mio
mio.
mir
mir@@
mire
mirror
mis@@
misch@@
mische
mischen
mischer
mischung
misleading
miss
miss@@
missbrauch
missed
missi@@
missible
missing
mission
missions
mist@@
mistake
mistakes
mit
mit@@
mitarbei@@
mitarbeiter
mitarbeiter@@
mitarbeitern
mitch@@
miteinander
mitgeteilt
mitgli@@
mitglied
mitglied@@
mitglieder
mitgliedern
mitgliedschaft
mitgliedstaat
mitgliedstaaten
mitig@@
mits
mitt@@
mittag
mittag@@
mittags
mitte
mitted
mitteilen
mitteilung
mitteilungen
mittel
mittel-
mittel@@
mittelalter
mittelalter@@
mittelalterlichen
mittelme@@
mittelmeer
mittelmeerraum
mitteln
mittelpunkt
mittels
mittelstän@@
mittelt
mitten
mitting
mittl@@
mittler@@
mittlere
mittleren
mittlerweile
mittlung
mittwoch
mitunter
mitwirkung
mitzu@@
mitzuteilen
mium
mix
mix@@
mixed
mixing
mixture
ml
ml@@
ml-@@
mly
mm
mm@@
mmen
mmer
mming
mming@@
mmt
mo
mö
mo@@
mö@@
möbel
mobil@@
mobile
mobilen
mobilfunk@@
mobili
mobili@@
mobilität
mobility
mobiltelef@@
möbli@@
möchte
möchten
mod@@
mode
model
model@@
modell
modell@@
modelle
modellen
modells
models
moder@@
moderate
modern
modern@@
moderne
modernen
moderner
modernes
moderni@@
modernis@@
modernisation
modernisierung
modernsten
modes
modest
modi@@
modification
modifications
modified
modify
modul
modul@@
modular
module
modules
modus
möge
mögen
möglich
möglich@@
mögliche
möglichen
möglicher
möglicherweise
möglichkeit
möglichkeiten
möglichst
moh
moh@@
mol@@
moldau
moldo@@
moldova
molec@@
mom@@
moment
moment@@
momentan
momente
moments
momentum
mon
mon@@
mön@@
monaco
monastery
monat
monat@@
monate
monaten
monats
mond
monday
monetary
money
monit@@
monitor
monitored
monitoring
monop@@
monopolies
monopoly
mont
mont@@
montag
montage
monte
monten@@
montenegro
monter@@
month
monthly
months
monti
montre@@
montreal
monum@@
monument
monuments
mood
moon
mor@@
moral
moral@@
moratorium
mord
mord@@
more
moreover
morgan
morgen
morgens
morning
moroc@@
morocco
mort@@
mos
mos@@
moscow
mosk@@
moskau
mosp@@
most
mostly
mot@@
mother
mothers
motion
motions
motiv@@
motivated
motivation
motivi
motivi@@
motor
motor@@
motoren
motors
motorway
motto
mou@@
moul@@
moun@@
mount
mountain
mountain@@
mountains
mounted
mounting
mouse
mouth
move
moved
movement
movements
moves
movie
movies
moving
moz@@
mozart
mozilla
mp
mp@@
mp3
mpft
mption
mr
mr.
mr@@
mrs
ms
ms@@
msn
mt
mt@@
mu
mü
mu@@
mü@@
much
mugabe
müh@@
mühe
mul@@
müll@@
müller
multi
multi@@
multi-@@
multilater@@
multilateral
multilingual
multimedi@@
multimedia
multin@@
multination@@
multinational
multip@@
multiple
multitude
mun@@
mün@@
münchen
mund
mündliche
mündlichen
mung
munich
municip@@
municipal
municipality
münzen
mur@@
murder
murdered
mus
mus@@
müs@@
muse@@
museen
museum
museums
musi
musi@@
music
musical
musicians
musik
musik@@
musiker
musli@@
muslim
muslim@@
muslims
muss
müsse
müssen
musst
musste
müsste
mussten
müssten
must
muster
mut
mut@@
müt@@
mutter
mutter@@
mutual
mutually
mutz@@
muy
mw@@
mware
my
my@@
myan@@
myanmar
myself
mysq@@
mysql
myst@@
mysteri@@
myth@@
n
ⁿ
ɴ
ń
Ń
ň
Ň
ñ
Ñ
n@@
n-@@
ⁿ@@
ń@@
Ń@@
ň@@
Ň@@
ñ@@
Ñ@@
ņ@@
Ņ@@
ṇ@@
na
nä
ña
na@@
nä@@
nach
nach@@
näch@@
nachbar@@
nachbarn
nachbarschaft
nachdem
nachdenken
nachfol@@
nachfolgend
nachfolgenden
nachfolger
nachfrage
nachgewiesen
nachhal@@
nachhaltig
nachhaltige
nachhaltigen
nachhaltiges
nachhaltigkeit
nachmittag
nachricht
nachricht@@
nachrichten
nachrichten@@
nächst
nächste
nächsten
nächster
nächstes
nacht
nacht@@
nächte
nachteil
nachteile
nachteili@@
nachten
nachtleben
nachts
nachts@@
nachvoll@@
nachweis
nachzu@@
nachzudenken
nag@@
nah
nah@@
näh@@
nahe
nähe
nahen
näher
näher@@
nahezu
nahm
nahm@@
nahme
nahme@@
nahmen
nahmen@@
nahr@@
nähr@@
nahrung
nahrungs@@
nahrungsmittel
nahrungsmittel@@
nail
nam
nam@@
name
named
namely
namen
namens
nament
namentlich
naments
names
nami@@
nämlich
nan@@
nap@@
naples
napol@@
nar@@
narrow
nas@@
nass@@
nat@@
nation
nation@@
national
national@@
nationale
nationalen
nationaler
nationales
nationalism
nationalismus
nationality
nationalpark
nationals
nationen
nations
native
nato
nato-@@
natur
natur@@
natür@@
natura
natural
naturally
nature
naturkatastrophen
natürlich
natürliche
natürlichen
natürlicher
naturschutz@@
nau@@
nav
nav@@
navig@@
navigation
navigations@@
naz@@
nazi
nazi@@
nbsp
nc@@
ncc-@@
nd
nde
nden
nder
ne
ne@@
ne-@@
near
near@@
nearby
nearest
nearly
neb@@
neben
neben@@
nec
nec@@
necess@@
necessarily
necessary
necessi@@
necessity
neck
ned
need
need@@
needed
needs
neg@@
negativ
negative
negativen
negl@@
negligence
negoti
negoti@@
negotiate
negotiated
negotiating
negotiation
negotiations
neh
neh@@
nehm@@
nehme
nehmen
nehmenden
nehmer
nehmern
nei@@
neigh@@
neighbo@@
neighbor@@
neighborhood
neighbourhood
neighbouring
neighbours
nein
neither
nel
nen
nen@@
nennen
nennt
neo@@
neo-@@
nep@@
nepal
ner
ner@@
nerin
nern
nero
ners
nes
nes@@
ness
ness@@
nesses
nest@@
nesty
net
net@@
neter
netes
nether@@
netherlands
nets
nett
nette
netto@@
network
networking
networks
netz
netz@@
netze
netzes
netzwerk
netzwerk@@
netzwerke
neu
neu@@
neue
neuen
neuer
neuer@@
neuerungen
neues
neueste
neuesten
neuigkeiten
neum@@
neun
neun@@
neur@@
neuse@@
neut@@
neutr@@
neutral
nev@@
nevada
never
nevertheless
new
new@@
newest
newly
news
news@@
newsletter
newsp@@
newspaper
newspapers
next
ney
neys
nez
nfalls
ng
ng@@
ngl
ngl-@@
ngos
nh
ni
ni@@
nia
nic
nic@@
nica
nice
nicely
nich@@
nicht
nicht@@
nicht-@@
nichtrau@@
nichtraucher@@
nichtraucherzimmer
nichtregierungs@@
nichts
nick@@
nicolas
nie
nied@@
nieder@@
niederlage
niederlande
niederlanden
niederländische
niederländischen
niedri@@
niedrig
niedrig@@
niedrige
niedrigen
niedriger
niel@@
niemals
niemand
nien
niens
nier
nieren
niert
nig
nig@@
nigeria
night
night@@
nightlife
nights
nik
nikol@@
nikon
nimmt
nin@@
nine
ning
nings
nir@@
nis
nis@@
nisch
nische
nischen
nischer
nisse
nissen
nisses
nit@@
niti
niti@@
nitt@@
nitten
niture
niveau
niveaus
nizza
nl
nnen
no
nö
ño
no.
no@@
no-@@
nö@@
nob@@
nobel
nobel@@
noble
nobody
nobyl
noch
nochmals
nock
nois@@
noise
noisy
nok@@
nokia
nom@@
nomin@@
nominated
nommen
non
non@@
non-@@
none
nonetheless
non-governmental
non-smoking
noon
nor
nor@@
nör@@
nord
nord@@
nordamerika
norden
nordi@@
nordic
nordirland
nördlich
nördlichen
nordo@@
norm
norm@@
normal
normale
normalen
normalerweise
normally
normen
norms
north
north-@@
northern
norway
norweg@@
norwegen
nos
ños
nose
not
not@@
notable
notably
note
noted
noten
noten@@
notes
nothing
noti@@
notic@@
notice
noticed
notification
notified
notify
nötig
nötige
nötigen
notion
notwen@@
notwendig
notwendige
notwendigen
notwendigkeit
nou@@
nous
nov@@
novel
november
nover
novotel
now
now@@
nowadays
nr.
nro
ns
nt
nt@@
nte
nten
nü
nu@@
nü@@
nuclear
nuklear@@
null@@
num@@
number
numbers
numer@@
numerous
nummer
nummern
nun
nun@@
nung
nungen
nungs@@
nunmehr
nur
nur@@
nür@@
nürn@@
nürnberg
nut@@
nüt@@
nutri@@
nutrition
nutz@@
nütz@@
nutzbar
nutzen
nutzer
nutzern
nützlich
nützliche
nutzt
nutzung
nutzungs@@
nutzungsbedingungen
ny
ny@@
№
ŋ@@
o
º
ó
Ó
ò
Ò
ô
Ô
ö
Ö
ō
õ
Õ
ǫ
ő
ố
ồ
ø
Ø
ọ
ờ
ỡ
ợ
o.
o.@@
o@@
o-@@
ｏ@@
º@@
ó@@
Ó@@
ò@@
Ò@@
ô@@
Ô@@
ö@@
Ö@@
ǒ@@
ŏ@@
ō@@
Ō@@
õ@@
Õ@@
ő@@
Ő@@
ố@@
ồ@@
ɵ@@
ø@@
Ø@@
ỏ@@
ơ@@
Ơ@@
ổ@@
Ọ@@
ớ@@
ờ@@
ộ@@
ợ@@
oa
oase
oasis
ob
ob@@
oba
obama
oben
obenen
ober@@
oberen
oberfläche
oberflächen@@
oberhalb
oberste
obersten
obil@@
obile
obj
obj@@
object
objections
objective
objectives
objects
objek@@
objekt
objekte
objektiv
obli@@
obliegt
oblig@@
obligation
obligations
obligator@@
obligatory
obliged
obo@@
oboda
obs
obs@@
observ@@
observation
observations
observe
observed
observers
obsol@@
obst
obst@@
obstac@@
obstacle
obstacles
obtain
obtained
obtaining
obvious
obviously
obwohl
oc@@
occ@@
occa@@
occasion
occasionally
occasions
occup@@
occupation
occupied
occur
occur@@
occurr@@
occurred
occurring
occurs
ocean
och
och@@
öch@@
ock
öcke
ocol@@
ocop@@
ocopying
october
od
od@@
odate
odation
odds
ode
oden
oder
öder@@
odes
odi@@
odiversity
ody
œ
Œ
œ@@
Œ@@
oec@@
oecd
oes
oeu@@
of
of@@
of-@@
ofes
off
off@@
off-@@
öff@@
Öff@@
offen
offen@@
offenbar
offences
offene
offenen
offener
offenheit
offenkundig
offensicht@@
offensichtlich
offensive
öffent@@
Öffent@@
öffentlich
öffentlich-@@
öffentliche
Öffentliche
öffentlichen
öffentlicher
Öffentlichkeit
offer
offer@@
offered
offering
offers
offic@@
office
officer
officers
offices
offici@@
official
officially
officials
offizi@@
offiziell
offizielle
offiziellen
offline
öffn@@
öffnen
Öffnen
öffnet
öffnete
öffnung
offset
ofs
oft
oft@@
often
of-the-@@
of-the-art
oftmals
oftware
og
og@@
oga
ogni@@
ogo
ogra@@
ograf@@
ografie
ograph
ograph@@
ographi@@
ographic
ographie
ography
oh
oh@@
öh@@
ohl
ohl@@
ohlen
ohn
ohn@@
ohne
öhne
ohnehin
öhnung
ohren
oi
oil
oils
ois
ok
ok@@
ök@@
oked
Öko@@
okol@@
ökologische
Ökon@@
ökonom@@
Ökonom@@
Ökonomie
ökonomische
ökonomischen
oktober
ol
öl
Öl
ol@@
öl@@
Öl@@
ola
olaf
olas
old
older
oldest
ole
ole@@
olen
oler@@
olf
oli
oli@@
olies
olive
oliven@@
oliver
ölk@@
oll
oll@@
ollah
ollar
ollars
olle
ölle
ollen
olls
olo
olo@@
olog@@
ologen
ologi
ologi@@
ological
ologically
ologie
ologien
ologies
ologisch
ologische
ologischen
ologischer
ologist
ologists
ologne
ology
ols
oly
oly@@
olymp@@
olympic
olympischen
olympus
olz
om
om@@
oma
omas
ombudsman
ome
omed
omen
ometer
omin@@
oming
omm@@
ommen
ommene
ommenen
ommer@@
ommis@@
ommiss@@
ommission
ommission@@
omo
omp@@
oms
on
ón
ön
on@@
on-@@
ön@@
ona
onable
onal
onale
once
ond
ond@@
onder@@
ondly
onds
onds@@
one
öne
one@@
one-@@
oned
onen
oner
oners
ones
ong
ong@@
ongoing
ongs
ongside
oni
oni@@
onia
onial
onian
onic
onie
onien
onight
oning
onische
onischen
onisten
onlin@@
online
on-line
online-@@
only
onment
onn@@
onna
onnen
onom@@
ons
ons@@
on-site
onsor@@
ont
ont@@
onte
onto
onwards
ony
ony@@
onym
onym@@
onymous
oo
oo@@
oo-@@
ood
oods
ook
ook@@
ooks
ool
oom
oom@@
oomen-@@
oomen-ruijten
oon
oos
oot
ooth
op
op@@
op-@@
opath@@
ope
open
open@@
open-@@
opened
opening
openly
openness
opens
oper
oper@@
opera
operate
operated
operates
operating
operation
operation@@
operational
operationen
operations
operative
operativen
operator
operators
operieren
opes
opf
opf@@
opfer
opfern
oph@@
ophi@@
ophistic@@
opho@@
ophobia
opia
oping
opinion
opinions
ople
opoli@@
opp@@
oppel@@
opping
oppon@@
opponents
opport@@
opportunities
opportunity
oppose
opposed
opposing
opposite
opposition
opro@@
ops
opt
optical
optim@@
optimal
optimale
optimalen
optimieren
optimiert
optimierung
optimistic
optimization
optimize
optimized
optimum
option
optional
optionen
options
or
ör
or@@
or-@@
ór@@
ör@@
ora
oracle
oral
oram@@
orama
oran@@
orange
oration
orca
orch@@
orchestra
ord
ord@@
örde
örden
ordentlich
order
örder@@
ordered
ordering
orders
ordin@@
ordinary
ording
ordn@@
ordnen
ordner
ordnet
ordnete
ordneten
ordnung
ordnungen
ordnungs@@
ordnungsgemä@@
ordnungsgemäß
ordnungsgemäße
ords
ore
ore@@
ored
oren
orer
ores
org
organ
organ@@
organe
organen
organic
organis@@
organisation
organisationen
organisations
organisations@@
organisator@@
organise
organised
organisieren
organisiert
organisierte
organisierten
organising
organismen
organisms
organiz@@
organization
organizations
organize
organized
organizing
organs
orgt
ori
ori@@
oria
orial
orian
orie
orien
orient@@
orientation
oriented
orienti
orienti@@
orientieren
orientiert
orientierte
orientierten
orientierung
ories
orig@@
origin
origin@@
original
original@@
originally
origins
orik
oring
orino
orio
orious
orities
ority
orium
oriums
oriz@@
ork
orn
orn@@
oro
orph@@
orrow
ors
ort
ört
ort@@
orte
orten
ortes
orthodo@@
örtlichen
orts
orts@@
ortschaft
ory
os
ös
os@@
ös@@
osc@@
osce
ose
öse
osen
ösen
öser
oslo
öss@@
ossen@@
ost@@
öst@@
osten
oster@@
österrei@@
Österrei@@
Österreich
österreich@@
österreichische
österreichischen
Österreichs
osteuropa
osteuropäischen
östlich
östlichen
ostse@@
ostsee
osze
ot
ot@@
ot-@@
ota
ote
otechn@@
oted
otel
ôtel
otels
oten
öten
oter
oth
oth@@
other
others
otherwise
oti
oti@@
otic
oting
otive
otro@@
ots
ott
ott@@
otte
otten
otti
otto
otyp@@
otype
ötz@@
ou
ou@@
oub@@
oud
ough
ought
oul
oul@@
ould
ouldn
oun@@
ounce
ounced
our
our@@
our-@@
ourable
oured
ouren
ours
ourselves
ous
ous@@
ouse
ouses
ously
ousness
out
out@@
out-@@
outcome
outdoor
outer
outer@@
outermost
outh
outline
outlined
outlook
output
outs
outs@@
outset
outside
outstanding
ouver@@
ov
ov@@
ova
ove
oven
over
over@@
over-@@
overall
overcome
overl@@
overlooking
overnight
overseas
overview
overwhel@@
overwhelming
ovi
ovi@@
ovina
ovo
ow
ów
ow@@
ow-@@
owe
owed
ower
owever
owing
own
own@@
own-@@
owned
owner
owners
ownership
own-initiative
ownlo@@
owns
ows
owski
ox
ox@@
oxford
oxy@@
oz@@
ozean
ozone
p
Ｐ
p.
p.@@
p.m.
p@@
p-@@
-p@@
Ｐ@@
pa
pa@@
pä@@
paar
paare
pac@@
pace
paci@@
pacific
pack
pack@@
package
packages
packaging
packed
packen
packing
packt
pact
pad
pad@@
pag@@
page
pages
paid
pain
pain@@
painful
paint
paint@@
painted
painting
paintings
pair
paired
pak@@
paket
paket@@
pakete
pakist@@
pakistan
pal
pal@@
palace
palacio
palais
palast
palästinens@@
palästinensische
palästinensischen
palazzo
palest@@
palestine
palestini@@
palestinian
palestinians
palette
palm
palma
pan@@
panasonic
panel
panels
panoram@@
panorama
panoramab@@
panoramic
pap@@
paper
papers
papier
papier@@
par
par@@
para
para@@
parad@@
paradies
paradise
paradox@@
parag@@
paragraph
paragraphs
parall@@
parallel
param@@
parameter
parameters
parc
parent
parents
paris
pariser
parish
park
park@@
parking
parkplatz
parkplätze
parks
parl@@
parlam@@
parlament
parlament@@
parlamentarische
parlamentarischen
parlamente
parlaments
parli@@
parliament
parliament@@
parliamentary
parliaments
part
part@@
part-@@
partei
partei@@
parteien
partement
parti
parti@@
partial
partially
partic@@
particip@@
participant
participants
participate
participated
participating
participation
particular
particularly
parties
partition
partly
partment
partments
partn@@
partner
partner@@
partnern
partners
partnerschaft
partnerschaften
partnerschafts@@
partnership
partnerships
parts
part-session
party
pas
pas@@
pass
pass@@
passag@@
passage
passagiere
passed
passen
passende
passenden
passenger
passengers
passes
passi
passi@@
passieren
passiert
passing
passion
passion@@
passive
passport
passt
password
passwort
past
past@@
pat@@
patch
patent
patent@@
patente
patented
patents
path
path@@
paths
pati
pati@@
patient
patienten
patients
patio
patri@@
patrick
patten
pattern
patterns
pau@@
paul
paulo
pause
pavi@@
pay
pay@@
paying
payment
payments
paypal
pays
pazi@@
pc
pc@@
pc-@@
pcs
pd@@
pdf
pdf-@@
pe
pe@@
pe-@@
pé@@
peac@@
peace
peaceful
peak
peaks
pear@@
pec@@
ped
ped@@
pedestri@@
pedestrian
pedi@@
pedia
pedition
pedro
pek@@
peking
pel@@
peline
pen
pen@@
penalties
penalty
pending
peninsula
pension
pension@@
pensionen
pensions
pent@@
peop@@
people
peoples
pep@@
per
per@@
perat@@
perc@@
perceived
percent
percent@@
percentage
perception
percussions
pered
perf@@
perfec@@
perfect
perfectly
perfek@@
perfekt
perfekte
perfekten
perform
perform@@
performance
performances
performed
performing
perhaps
peri
peri@@
perio@@
period
periode
periods
peripher@@
peripheral
perman@@
permanent
permanently
permission
permit
permits
permitted
pero
peror
perpet@@
pers
pers@@
persec@@
persecution
persist@@
persistent
person
person@@
persön@@
personal
personal@@
personality
personalized
personally
personals
personen
personen@@
personenbezo@@
personenbezogenen
persönlich
persönliche
persönlichen
persönlicher
persönliches
persönlichkeit
personnel
persons
persp@@
perspective
perspectives
perspek@@
perspektive
perspektiven
persu@@
persuade
perto@@
pertoire
peru
peru@@
pes
pes@@
pesti
pesti@@
pesticides
pestizi@@
pet
pet@@
peter
peter@@
peters@@
petersburg
peti
peti@@
petit
petition
petitions
pets
pez
pf@@
pfad
pfe
pfei@@
pfeiler
pfen
pfer@@
pferd
pferde
pflan@@
pflanz@@
pflanzen
pflanzen@@
pflege
pflegen
pfli
pfli@@
pflich@@
pflicht
pflicht@@
pflichten
pft
pfund
pfung
pg
ph
ph@@
pha
phal@@
phänom@@
phänomen
phar@@
pharm@@
pharma@@
pharmac@@
pharmaceu@@
pharmaceutical
phas@@
phase
phasen
phases
phe
phen
phen@@
phenom@@
phenomena
phenomenon
pher@@
phi
phi@@
phil@@
philharmon@@
phili@@
philipp@@
philos@@
philosoph@@
philosophi@@
philosophie
philosophy
pho@@
phone
phones
phot@@
photo
photo@@
photocopying
photograph@@
photographer
photographs
photography
photos
photoshop
php
php@@
phr@@
phrase
phs
phy
phys@@
physi@@
physical
pi@@
piano
piazza
pic@@
picard
pick
pick@@
picked
pictur@@
picture
pictures
picturesque
piece
pieces
pier@@
pierre
piet@@
pig@@
pil@@
pilgri@@
pillar
pillars
pilot
pilot@@
pin
pin@@
pine
ping
pione@@
pipe
pipeline
pir@@
pis@@
pisa
pist@@
pit
pit@@
pite
pity
pixel
pixels
pk@@
pl
pl@@
pla@@
plac
plac@@
place
placed
placement
places
placing
plain
plan
plan@@
plane
pläne
planen
planes
planet
planeten
plann@@
planned
planning
plans
plant
plant@@
plants
planung
plas@@
plastic
plastics
plat@@
plate
plates
platform
platforms
platt@@
platte
platten
platten@@
plattform
plattformen
platz
plätz@@
plätze
plätzen
play
play@@
playa
played
player
players
playground
playing
plays
plaza
ple
ple@@
pleas@@
pleasant
please
pleased
pleasure
pled
plen@@
plenary
plenty
plenum
pler
ples
pling
plom@@
plot
plötz@@
plötzlich
plu@@
plug
plug@@
plugin
plung
plur@@
plus
pm
pm@@
pment
pn@@
po
po@@
pocket
pod@@
poettering
poin@@
point
point@@
pointed
pointing
points
poker
poker@@
pol
pol@@
poland
pole
polen
poli
poli@@
polic@@
police
policies
policy
policy@@
policymakers
polis
polish
polit@@
politan
polite
politi
politi@@
political
politically
politicians
politics
politik
politik@@
politiken
politikern
politisch
politische
politischen
politischer
politisches
polizei
polizei@@
poll@@
pollution
polnische
polnischen
polo
poly@@
pom@@
pon@@
pool
pools
poor
poor@@
poorer
poorest
pop
pop@@
popul@@
popular
popularity
populated
population
populations
populi
populi@@
por
por@@
porary
porate
poration
porno@@
porsche
port
port@@
portable
portal
porte
porte@@
porter
portfolio
portion
porto
portra@@
ports
portu
portu@@
portugal
portugi@@
portugiesische
portugiesischen
portugu@@
portuguese
pos
pos@@
pose
posed
posedly
poses
posi
posi@@
posing
posit
posite
position
position@@
positioned
positionen
positioning
positions
positiv
positive
positively
positiven
positiver
positives
pository
poss@@
posselt
possess
possession
possibilities
possibility
possible
possibly
post
post@@
post-@@
postal
posted
posten
posting
postp@@
postponed
posts
pot
pot@@
poten@@
potenti@@
potential
potentially
potenzi@@
potenzial
potenzielle
poth@@
pots
pots@@
pour
pover@@
poverty
pow@@
powder
power
power@@
powered
powerful
powers
pp
pp@@
ppe
ppe-@@
pped
ppe-de
ppen
ppen@@
pper
pping
pps
pr
pr@@
prä
pra@@
prä@@
prac@@
practi@@
practic@@
practical
practically
practice
practices
prag
pragm@@
pragmatic
prague
praise
prak@@
prakti@@
praktiken
praktisch
praktische
praktischen
pran@@
präsen@@
präsent
präsent@@
präsentation
präsentieren
präsentiert
präsenz
präsident
präsident@@
präsidenten
präsidentin
präsidentschaft
präsidentschafts@@
prävention
praxis
präz@@
präzise
präzision
pre@@
pre-@@
pré@@
pread
prec
prec@@
precau@@
precautionary
preced@@
precedent
preci
preci@@
precious
precise
precisely
precision
predec@@
predecessor
predic@@
predictable
predomin@@
prefer
prefer@@
preference
preferences
preferred
pregn@@
prei
prei@@
preis
preis@@
preis-@@
preise
preisen
preises
preis-leistungs@@
prejudi@@
prel@@
preliminary
prem@@
preme
premi@@
premier
premier@@
premis@@
premises
premium
prep@@
prepar@@
preparation
preparations
preparatory
prepare
prepared
preparing
prer@@
prerequ@@
prerequisite
pres@@
prescri@@
presence
present
present@@
presentation
presentations
presented
presenting
presents
preser@@
preservation
preserve
preserved
preserving
presi@@
presidency
president
president@@
presidential
president-in-@@
president-in-office
presidents
press
press@@
presse
presse@@
pressed
pressem@@
pressemitt@@
pressing
pression
pressive
pressure
pressures
presti@@
prestige
prestigi@@
prestigious
presum@@
pret@@
pretext
pretty
prev@@
prevail
prevent
prevented
preventing
prevention
preventive
prevents
preview
previous
previously
pri
pri@@
price
priced
prices
pricing
pride
prim@@
primarily
primary
prime
prin@@
princ
princ@@
prince
princip@@
principal
principle
principles
print
print@@
printed
printer
printing
prints
prinzip
prinzipien
prior
prior@@
priori@@
priorität
prioritäten
priorities
priority
pris@@
prise
prises
prison
prisoners
priv
priv@@
privacy
privat
privat@@
private
privaten
privater
privati@@
privatis@@
privatsphäre
privi@@
privileg@@
privilege
privileged
privileges
prix
prize
prizes
pro
pro@@
pro-@@
prob@@
probably
probe
probieren
problem
problem@@
problematic
problematik
problematisch
probleme
problemen
problemlos
problems
proc@@
proced@@
procedural
procedure
procedures
proceed
proceed@@
proceedings
process
process@@
processed
processes
processing
processor
proch@@
prochen
prochenen
procurement
prodi
produ@@
produc
produc@@
produce
produced
producer
producers
produces
producing
product
production
productions
productive
productivity
products
produk@@
produkt
produkt@@
produkte
produkten
produktion
produktion@@
produktions@@
produktiv
produktiv@@
produktpalette
produkts
produzenten
produzi@@
produzieren
produziert
prof.
prof@@
profes@@
profession
profession@@
professional
professionalism
professionals
professionell
professionelle
professionellen
professor
profi
profi@@
profil
profil@@
profile
profiles
profit
profit@@
profitable
profitieren
profitiert
profits
profound
progno@@
program
program@@
programm
programm@@
programme
programmen
programmes
programmier@@
programming
programms
programs
progres@@
progress
progressive
prohi@@
prohibited
proj@@
project
projects
projek@@
projekt
projekt@@
projekte
projekten
projektes
projekts
proliferation
promenade
promin@@
prominent
promis@@
promise
promised
promises
promising
promo@@
promot@@
promote
promoted
promotes
promoting
promotion
promotional
promp@@
prompt
promptly
pron@@
proof
proof@@
proofed
prop@@
propag@@
propaganda
proper
proper@@
properly
properties
property
proph@@
propor@@
proportion
proportion@@
proportionate
propos@@
proposal
proposals
propose
proposed
proposes
proposing
propri
propri@@
proprietary
prosec@@
prosp@@
prospect
prospects
prosperity
prosperous
prostitution
prot@@
protect
protected
protecting
protection
protection@@
protectionism
protective
protects
protein
protes@@
protest
protest@@
proteste
protests
proto@@
protocol
protocols
protok@@
protokoll
protokolls
protot@@
proud
prov@@
prove
proved
proven
proven@@
provence
proves
provi@@
provide
provided
provider
providers
provides
providing
provin@@
province
provinz
provision
provisions
provo@@
proxim@@
proximity
proz@@
prozent
prozent@@
prozess
prozess@@
prozesse
prozessen
prozesses
pru
prü
pru@@
prü@@
prüf@@
prüfen
prüft
prüfung
prüfungen
ps
ps@@
pse
psy@@
psych@@
psycho@@
psychological
pt
pt@@
ption
ptions
pts
pts@@
pu@@
pub
pub@@
public
public@@
public-@@
publication
publications
publicly
publik@@
publikationen
publikum
publish
publish@@
published
publishing
pubs
puer@@
puerto
pul@@
pull
pump
pumps
pun@@
punc@@
punished
punishment
punk@@
punkt
punkt@@
punkte
punkten
punta
pup@@
pupils
pur
pur@@
purch@@
purchase
purchased
purchaser
purchases
purchasing
pure
purely
purpose
purposes
pursu@@
pursuant
pursue
pursued
pursuing
pursuit
pus@@
push
pushed
pushing
put
put@@
putin
puts
putting
pv@@
pvc
px@@
py@@
pyren@@
q
q@@
qm
qu
qu@@
quad@@
quadrat@@
qual@@
quali@@
qualification
qualifications
qualified
qualifikationen
qualifizierte
qualifizierten
qualifizierter
qualify
qualit@@
qualität
qualitativ
qualitative
qualitäts@@
qualities
quality
quanti
quanti@@
quantit@@
quantitative
quantities
quantity
quar@@
quare
quark
quark@@
quarkxpress
quart@@
quartal
quarter
quarters
quasi
que
que@@
queen
quell@@
quelle
quellen
quer
quer@@
queren
queries
query
ques
ques@@
quest
question
question@@
questions
quests
quet
qui
qui@@
quick
quick@@
quickly
quiet
quiet@@
quil
quint@@
quired
quiries
quiry
quis
quite
quo
quot@@
quota
quotas
quote
quoted
quoten
r
ŕ
ř
Ř
ṛ
ɹ
ɾ
r.
r.@@
r@@
r-@@
ʀ@@
ŕ@@
ř@@
Ř@@
ṛ@@
ɹ@@
ɾ@@
ʁ@@
ra
rä
ra@@
rä@@
rab@@
rabatt
rac
rac@@
race
races
racht
racht@@
rachte
rachten
racies
racing
racism
racle
racy
rad
rad@@
räder
radi@@
radiation
radic@@
radical
radik@@
radio
radio@@
radioactive
radis@@
radisson
rael@@
raf
raf@@
räf@@
raff@@
raffin@@
raft
raft@@
rag@@
rage
räger
rägern
rah
rah@@
rahmen
rahmen@@
rahmenbedingungen
rahmenprogramm
rahmens
raid
rail
rail@@
railway
railways
rain
rain@@
raise
raised
raises
raising
rak@@
ral
rale
ram
ram@@
ramblas
ran
ran@@
rän@@
rand
rand@@
rande
random
rang
range
ranges
rangi
rangi@@
ranging
rank
rank@@
ränk@@
ranken
ranking
ranks
ränkt
ränkte
ränkten
ränkung
ränkungen
rant
rap@@
raph
raphi@@
raphs
rapid
rapidly
rapporte@@
rapporteur
rapporteurs
rar@@
rare
rarely
ras
ras@@
rasch
rasche
raschen
räsi@@
räsident
räsidenten
rass@@
rasse
rassismus
rat
rat@@
rate
räte
rated
raten
rates
rath@@
rather
rati
rati@@
ratic
ratification
ratified
ratifizierung
ratify
rating
ratings
ratio
ration@@
rational
rats
rats@@
ratschlag
ratspräsidentschaft
rau@@
räu@@
rauch
rauchen
raum
raum@@
räum@@
räume
räumen
räumlichkeiten
raums
räumt
rav
rav@@
raw
ray
rays
rd
re
re@@
re-@@
ré@@
rea
reach
reach@@
reached
reaches
reaching
react
reaction
reactions
read
read@@
reader
readers
readily
reading
reads
ready
reaffir@@
reagieren
reagiert
reak@@
reaktion
reaktionen
real
real@@
real-@@
reale
realen
realis@@
realise
realised
realisieren
realisierung
realistic
realistische
realität
realities
reality
realization
realize
realized
really
realm
real-time
rear
reas@@
reason
reason@@
reasonable
reasonably
reasons
reb@@
reben
rebt
rec
rec@@
recall
recei@@
receipt
receive
received
receives
receiving
recent
recently
recep@@
reception
recession
rech@@
rechen@@
rechenschaft
recher@@
rechn@@
rechnen
rechner
rechnet
rechnung
rechnungs@@
recht
recht@@
rechte
rechten
rechtfertigen
rechtlich
rechtliche
rechtlichen
rechtlicher
rechts
rechts@@
rechtsan@@
rechtsgrundlage
rechtsk@@
rechtsprechung
rechtssicherheit
rechtsvorschriften
rechtzeitig
reci@@
recip@@
recipient
reciproc@@
reck@@
reco@@
recogn@@
recogni@@
recognis@@
recognise
recognised
recognises
recognition
recognize
recognized
recomm@@
recommend
recommend@@
recommendation
recommendations
recommended
recommends
reconciliation
reconstruction
record
record@@
recorded
recording
recordings
records
recover
recover@@
recovery
recre@@
recreation
recreational
recru@@
recruitment
recti@@
recur@@
recy@@
recycling
red
red@@
rede
rede@@
reden
redi@@
reding
redner
reds
reduc
reduc@@
reduce
reduced
reduces
reducing
reduction
reductions
redund@@
redundant
reduzi@@
reduzieren
reduziert
reduzierung
ree
ref
ref@@
refer
refer@@
reference
references
referendum
referenz@@
referred
referring
refers
refined
refl@@
reflect
reflected
reflecting
reflection
reflects
reflek@@
reform
reform@@
reformed
reformen
reforms
refra@@
refres@@
refreshing
refri
refri@@
refriger@@
refu@@
refuge
refuge@@
refugee
refugees
refund
refur@@
refurbished
refusal
refuse
refused
reg@@
regar@@
regard
regarded
regarding
regardless
regards
regel
regel@@
regelmäß@@
regelmäßig
regelmäßige
regelmäßigen
regeln
regelung
regelungen
regen@@
regi
regi@@
regier@@
regierung
regierungen
regierungs@@
regierungschefs
regime
regimes
region
region@@
regional
regional@@
regionale
regionalen
regionalpolitik
regionen
regions
regisse@@
regist@@
register
registered
registration
registri@@
registrieren
registriert
registrierung
registrierungs@@
regret
regrett@@
regrettable
regu
regu@@
regul@@
regular
regularly
regulate
regulated
regulating
regulation
regulations
regulatory
reguli@@
regulierung
regulierungs@@
reh@@
rehab
rehab@@
rehabilit@@
rehabilitation
rei
rei@@
reib@@
reiben
reiber
reibern
reibt
reibung
reibungen
reibungs@@
reich
reich@@
reiche
reichen
reichen@@
reichend
reichende
reicher
reiches
reichhal@@
reichhaltiges
reichlich
reichs
reichsten
reicht
reicht@@
reichtum
reichung
reichweite
reif@@
reifen
reihe
reihen
reihenfolge
reim@@
reimbur@@
rein
rein@@
reine
reinen
reinforce
reinforced
reinig@@
reinigung
reis
reise
reise@@
reiseb@@
reisen
reisende
reisenden
reiten
reiter@@
reiterate
reiz@@
rej@@
reject
rejected
rejection
rek@@
rel
rel@@
reland
relate
related
relates
relating
relation
relation@@
relations
relationship
relationships
relativ
relative
relatively
relatives
relax
relax@@
relaxation
relaxed
relaxing
rele@@
release
released
releases
relev
relev@@
relevance
relevant
relevante
relevanten
reli@@
reliability
reliable
relief
religi@@
religion
religions@@
religiöse
religiösen
religious
reloc@@
reluc@@
rely
rem
rem@@
remain
remain@@
remained
remaining
remains
remark
remark@@
remarkable
remarks
remedy
remember
remember@@
remembered
rement
remin@@
remind
reminded
remo@@
remote
removal
remove
removed
removing
remuner@@
ren
ren@@
renaissance
rency
render
rendered
rene@@
reneur@@
renew@@
renewable
renewal
renewed
renn@@
rennen
renomm@@
renommierten
renov@@
renovated
renovation
renovi@@
renoviert
renovierte
renowned
rent
rent@@
rental
rentals
renten@@
rently
rep@@
repair
repar@@
reparatur
repe@@
repeat
repeat@@
repeated
repeatedly
repercussions
replac@@
replace
replaced
replacement
replacing
reply
report
report@@
reported
reporting
reports
reprä@@
repräsent@@
repräsentiert
repres@@
represent
represent@@
representation
representative
representatives
represented
representing
represents
repression
repressive
reproduction
reproductive
repub@@
republi@@
republic
republic@@
republik
reputation
requ@@
request
requested
requesting
requests
requi@@
require
require@@
required
requirement
requirements
requires
requiring
rer
res
res@@
rescu
rescu@@
rescue
resear@@
research
researchers
reser@@
reserv@@
reservation
reservations
reserve
reserved
reserves
reservieren
reservierung
resi@@
residen@@
residence
resident
residential
residents
residenz
resign@@
resist
resist@@
resistance
resistant
resol@@
resolution
resolutions
resolve
resolved
resolving
resort
resorts
resour@@
resource
resources
resp@@
respect
respected
respecting
respective
respectively
respects
respek@@
respekt
respektiert
respon@@
respond
responded
responding
response
responses
responsibilities
responsibility
responsible
ress
ression
ressourc@@
ressource
ressourcen
rest
rest@@
resta@@
restaur@@
restaurant
restaurants
restlichen
restor@@
restoration
restore
restored
restoring
restra@@
restri
restri@@
restric@@
restrict
restricted
restriction
restrictions
restrictive
restrik@@
restru
restru@@
restruc@@
restructuring
resul@@
result
result@@
resultat
resultate
resulted
resulting
results
resum@@
resume
resumed
ret
ret@@
retail
retail@@
retain
retained
retar@@
retary-@@
retention
reti@@
retirement
retreat
retri@@
retro@@
rets
rett@@
retten
rettung
rettungs@@
retur@@
return
returned
returning
returns
rev
rev@@
reve@@
reveal
revealed
reveals
revenue
revenues
rever@@
reverse
revi@@
review
reviewed
reviews
revised
revision
revol@@
revolu@@
revolution
revolution@@
revolutionary
rewar@@
reward
rey
rez
rez@@
rezep@@
rezeption
rf@@
rh@@
rhein@@
rhetor@@
rhetoric
rhine
rhyth@@
ri
ri@@
ria
ric
ric@@
rica
rice
rich
rich@@
richard
richt
richt@@
richten
richter
richtet
richtete
richtig
richtige
richtigen
richtigkeit
richtlin@@
richtlinie
richtlinien
richtung
richtungen
rics
rid
rid@@
ride
ridi@@
ridicul@@
riding
rie@@
rieb
rieb@@
riebe
rieben
riebene
riebenen
ried
ries
ries@@
riesen@@
riesige
riesigen
rif@@
riff
riff@@
riffe
riffen
riffs
riffs@@
rift
rig@@
righ@@
right
right-@@
rightly
rights
rigi
rigi@@
rigid
rigor@@
rigorous
rik
rim@@
rimini
rin@@
rind@@
rindfleisch
ring
ring@@
ringen
rings
rio
ris
ris@@
rischen
rise
risen
rises
risi@@
risiken
risiko
risiko@@
rising
risk
risk@@
risks
rist@@
rit
rit@@
riteri@@
riterien
riterium
ritt
ritt@@
ritte
ritten
ritter
ritz
riv@@
river
rivers
riviera
rix
rl@@
rlpool
ro
rö
ro@@
ro-@@
rö@@
road
road@@
roads
rob@@
rober@@
robert
robo@@
robots
robu@@
robust
roc@@
rock
rock@@
rocks
roff@@
roffene
rog@@
roh
roh@@
rohr@@
rohstoff@@
rohstoffe
rol
rol@@
role
roler
roles
roll
roll@@
rolle
rolled
rollen
rolling
rom
rom@@
roma
roma-@@
romagna
roman
roman@@
romania
romanian
romanti@@
romantic
rome
römischen
romp@@
romul@@
ron
ron@@
rön@@
ront
roof
roof@@
room
room@@
rooms
rooms.com
root
rooted
roots
ror
rors
ros
ros@@
rosa
rose
rosen@@
rot
rot@@
rotar@@
rotary
rote
roten
roth@@
rotter@@
rotterdam
rou
rou@@
rough
roughly
rought
round
round@@
rounded
rounds
rout@@
route
routes
routine
rov@@
row
row@@
rowing
rows
roy@@
royal
rs
rs@@
rss
rt
rt@@
rts
ru
rü
ru@@
rü@@
rub
rub@@
rubber
rubrik
rück@@
rücke
rücken
rückkehr
rücksicht
rückt
rücktritt
rue
ruf
ruf@@
rufe
rufen
ruft
rug
rug@@
rüger@@
ruh@@
rüh@@
ruhe
ruhen
ruhi@@
ruhig
ruhige
ruhigen
ruhiger
ruij@@
ruins
rul@@
rule
ruled
rules
ruling
rum
rum@@
rumänien
run
run@@
rün@@
rund
rund@@
runde
runden
rung
running
runs
rup@@
rupp
rupp@@
ruppe
ruppen
rupt
rupt@@
rupted
ruption
rural
rus
rus@@
russ@@
russen
russi@@
russia
russian
russians
russische
russischen
russland
russlands
rüst@@
rüstung
rut@@
ry
ry@@
rying
s
ｓ
ś
Ś
ŝ
š
Š
ş
Ş
ș
ʃ
s-
s.
s.@@
s.a.
s.com
s@@
s-@@
-s@@
Ｓ@@
ś@@
Ś@@
ŝ@@
š@@
Š@@
ş@@
Ş@@
ș@@
ʃ@@
sa
sä
sa@@
sä@@
saal
sab@@
sac@@
sach@@
sache
sachen
sachver@@
sacri@@
sacrific@@
sacrifice
sad
sad@@
saddam
saf@@
safe
safegu@@
safeguard
safeguarding
safeguards
safely
safer
safety
sag@@
sage
sagen
sagt
sagte
sagten
sah
sah@@
sahara
sahen
said
sail
sail@@
sailing
saint
saint-@@
saison
sak@@
sake
sal@@
salaries
sale
sales
salle
salon
salt
salv@@
salvador
salz@@
salzburg
sam
sam@@
säm@@
same
samen
sames
samkeit
samm@@
sammel@@
sammeln
sammlung
sample
samples
samstag
samsung
sämtliche
sämtlichen
sämtlicher
san
san@@
sanc@@
sanctions
sand
sand@@
sandstrand
sandy
sanit@@
sank@@
sanktionen
sant
sant@@
santa
santer
santi@@
santiago
são
sap
sar@@
sard@@
sark@@
sarko@@
sarkozy
sat
sat@@
satelli
satelli@@
satellite
satelliten@@
sation
satis@@
satisfac@@
satisfaction
satisfactory
satisfied
satisfy
satlan@@
satur@@
saturday
satz
satz@@
sätz@@
sätze
sätzen
satzes
sätzlich
sau@@
säu@@
sauber
sauber@@
saubere
saudi
saudi@@
säule
säulen
sauna
sav
sav@@
save
saved
saving
savings
saw
sax@@
say
saying
says
s-b@@
sbru@@
sc
sc@@
scal@@
scale
scan
scan@@
scandal
scandinavi@@
scann@@
scanner
scap@@
scape
scar
scar@@
scen@@
scenario
scenarios
scene
scenery
scenes
scenic
scep@@
sch
sch@@
sch-@@
scha
schä@@
schad@@
schäd@@
schaden
schäden
schaden@@
schädlichen
schaf@@
schaff@@
schaffen
schafft
schaffung
schaft
schaft@@
schaften
schafter
schaftlich
schaftliche
schaftlicher
schafts@@
schaftsp@@
schal@@
schalt@@
schalten
schalter
schande
schar@@
schär@@
schatten
schatten@@
schätz@@
schätze
schätzen
schätzung
schätzungen
schau
schau@@
schauen
schauspiel@@
schauspieler
sche
sche@@
schecken
sched@@
schedul@@
schedule
scheduled
schei@@
schein
schein@@
scheinbar
scheinen
scheint
scheitern
schem
schem@@
scheme
schemes
schen
schen@@
schend
schengen
schengen-@@
schengener
schenken
scher
scher@@
sches
scheu@@
schi@@
schicht
schichten
schicken
schicks@@
schicksal
schie@@
schieben
schiebung
schied
schied@@
schieden
schien
schienen@@
schiff
schiff@@
schiffe
schiffen
schiffs@@
schil@@
schir@@
schl@@
schla@@
schlä@@
schlacht
schlacht@@
schlaf@@
schlafen
schlafzimmer
schlag
schlag@@
schlage
schläge
schlagen
schlägen
schlägt
schle@@
schlecht
schlechte
schlechten
schlechter
schlei@@
schli@@
schlicht
schlie@@
schließ@@
schließe
schließen
schließlich
schließt
schlim@@
schlimm@@
schlimmer
schlimmsten
schloss
schlu
schlu@@
schlug
schluss
schluss@@
schlüsse
schlüssel
schlussel@@
schlüssel@@
schm@@
schmer@@
schmerz@@
schmi@@
schmu@@
schn@@
schne@@
schnee
schnei@@
schneiden
schnell
schnell@@
schnelle
schnellen
schneller
schnelles
schnitt
schnitt@@
schnitte
schnittstelle
schnittstellen
scho@@
schö@@
schock@@
schokol@@
schokolade
schol@@
schon
schön
schon@@
schön@@
schöne
schönen
schöner
schönes
schönheit
schönheits@@
schönsten
school
school@@
schools
schöpf@@
schot@@
schott@@
schottland
schrank
schränken
schrau@@
schre@@
schreck@@
schrecklichen
schrei
schrei@@
schreib@@
schreiben
schreibt
schreiten
schrieb
schrif@@
schrift
schrift@@
schriften
schriftlich
schriftliche
schriftlichen
schriftsteller
schritt
schritt@@
schritte
schritten
schrittweise
schrö@@
scht
schte
schten
schü
schu@@
schü@@
schuh@@
schuhe
schul@@
schuld
schuld@@
schulden
schulden@@
schuldig
schuldigen
schule
schulen
schüler
schüler@@
schulung
schulungen
schulz
schung
schungen
schungs@@
schutz
schutz@@
schütz@@
schützen
schutzes
schützt
schw@@
schwä@@
schwach
schwach@@
schwäch@@
schwachen
schwächen
schwanger@@
schwar@@
schwarz
schwarz@@
schwarze
schwarzen
schwe@@
schweden
schwedische
schwedischen
schwei@@
schweigen
schwein@@
schweiz
schweizer
schwellen@@
schwer
schwer@@
schwere
schweren
schwerpunkt
schwerpunkte
schwerwiegende
schwi@@
schwieri@@
schwierig
schwierigen
schwieriger
schwierigkeiten
schwimm@@
schwimmbad
sci
sci@@
science
sciences
scienti@@
scientific
scientists
sclub
scope
score
scores
scot@@
scotland
scott
scottish
scra@@
scrat@@
scre@@
screen
screen@@
screening
screens
scri@@
script
scripts
scrut@@
scrutiny
sculp@@
sd
sd@@
sdl
se
sé
se@@
se-@@
sé@@
sea
seaf@@
seal
seam@@
search
search@@
searching
seas
seas@@
seaside
season
seasonal
seasons
seat
seating
seats
seattle
seb@@
sebas@@
sebastian
sec
sec@@
sech@@
sechs
secon@@
second
second-@@
secondary
secondly
seconds
secret
secret@@
secretary
secretary-@@
secretary-general
section
sections
sector
sectoral
sectors
secular
secur@@
secure
secured
securing
securities
security
sed
sed@@
sedatum
see
see@@
seed
seeds
seef@@
seeh@@
seeing
seek
seek@@
seekers
seeking
seeks
seel@@
seele
seem
seem@@
seemed
seems
seen
sees
seever@@
seg@@
segel@@
segment
segments
seh
seh@@
sehe
sehen
sehenswür@@
sehenswürdigkeiten
sehr
sei
sei@@
seid
seien
sein
sein@@
seine
seinem
seinen
seiner
seines
seit
seitdem
seite
-seite
seiten
-seiten
seiten@@
seitens
seits
sek@@
sekre@@
sekret@@
sekt@@
sektor
sektoren
sektors
sekunden
sel
sel@@
selb@@
selbe
selben
selber
selbst
selbst@@
selbstverständlich
select
selected
selecting
selection
selek@@
self
self-@@
self-employed
sell
sell@@
seller
selling
seln
sels
selt
selten
selts@@
selves
sely
sem@@
sement
sements
semi@@
semi-@@
semin@@
seminar
seminare
seminars
sen
sen@@
senal
send
sende
senden
sender
sendet
sending
sends
sendung
senior
senk@@
senken
sens
sens@@
senschaf@@
sense
senses
sensi
sensi@@
sensibili@@
sensible
sensiblen
sensitive
sensitivity
sensor
sensors
sensus
sent
sent@@
sentation
sentence
sentences
senti@@
senz
seo
sep@@
separ@@
separate
separated
separately
separation
sept@@
september
sequ@@
sequence
sequent
sequently
ser
ser@@
ser-@@
serb@@
serbia
serbian
serbien
sere
seri
seri@@
serial
serie
series
serious
seriously
serklärung
sern
sers
sert
serv@@
servants
serve
served
server
server@@
servern
servers
serves
servi
servi@@
servic@@
service
service@@
service-@@
servicel@@
serviceleistungen
services
serviert
serving
ses
ses@@
session
sessions
set
set@@
sets
sett@@
setting
settings
settle
settled
settlement
settlements
setup
setz@@
setzbar
setzen
setzt
setzte
setzten
setzung
setzungen
setzungs@@
seu@@
sev@@
seven
sever@@
several
severe
severely
sevilla
seville
sewhere
sex
sex@@
sexu@@
sexual
sexuelle
sexuellen
sexy
sey
sey@@
sfer
sg@@
sh
sh@@
-sh@@
sha@@
shad@@
shadow
shall
sham@@
shame
shand@@
shang@@
shanghai
shape
shaped
shapes
shaping
shar@@
share
shared
shareholders
shares
sharing
sharon
sharp
sharp@@
she
she@@
shed
sheep
sheet
sheets
sheit
shel@@
shell
sher@@
shi
shi@@
shift
shil@@
shin@@
shine
ship
ship@@
shipment
shipped
shipping
ships
shire
shirt
sho@@
shock
shoe
shoes
shof
shoot
shooting
shop
shopping
shops
shor@@
shore
shores
short
short@@
short-@@
shortage
shortcomings
shorter
shortly
short-term
shot
shots
shoul@@
should
shoulder
show
show@@
showed
shower
showers
showing
shown
shows
shr@@
shut
shutt@@
shuttle
si
si@@
sia
sian
sibili
sibili@@
sibilities
sibility
sible
sibly
sich
sich@@
sicher
sicher@@
sichere
sicheren
sicherer
sichergestellt
sicherheit
sicherheits@@
sicherheitsrat
sicherlich
sichern
sicherstellen
sichert
sicherung
sicherungen
sicherungs@@
sicherzustellen
sicht
sicht@@
sichtbar
sichten
sichtlich
sichts@@
sick
side
side@@
sides
sie
sie@@
sieb@@
sieben
sied@@
siedlung
siedlungen
sieg
sieg@@
siehe
sieht
siem@@
siemens
sien
siena
sier@@
sieren
sierra
siert
sierte
sierten
sierung
sierungs@@
sig@@
sight
sight@@
sights
sightseeing
sigkeit
sign
sign@@
signal
signal@@
signale
signals
signature
signatures
signed
signi@@
signific@@
significance
significant
significantly
signing
signs
sil@@
silber@@
silence
silent
sili@@
silver
silver@@
silverfast
sim@@
simbabwe
simil@@
similar
similarly
simon
simp@@
simple
simpler
simpli@@
simplification
simplified
simplify
simply
simul@@
simulation
simult@@
simultane@@
simultaneously
sin
sin@@
sinc
sinc@@
since
sincer@@
sincere
sincerely
sind
sing
sing@@
singap@@
singapor@@
singapore
singapur
singer
singing
single
single-@@
sinken
sinn
sinn@@
sinne
sinnvoll
sinnvolle
sion
sion@@
sional
sionally
sionen
sions
sions@@
sir
sir@@
sis
sis@@
sisko
sist@@
sister
sit
sit@@
site
sites
sitting
situ
situ@@
situated
situation
situationen
situations
sity
sitz
sitz@@
sitzen
sitzt
sitzung
sitzungen
siv
sive
sively
siven
six
six@@
six-@@
sixth
size
sized
sizes
sk
sk@@
ska
skal@@
skap@@
skep@@
ski
ski@@
skiing
skill
skilled
skills
skin
skla@@
sko
sko@@
skosten
skraft
skri@@
skul@@
sky
sky@@
skype
sl
sl@@
sla@@
slau@@
slave
sle@@
sleep
sleeping
sletter
sli@@
slide
slides@@
slideshows
sligh@@
slight
slightly
slo
slo@@
slope
slopes
slot
slov@@
slovak
slovakia
sloven@@
slovenia
slovenian
slow
slow@@
slowak@@
slowakei
slowen@@
slowenien
slowly
sm
sm@@
small
small@@
small-@@
smaller
smallest
sman
smar@@
smart
smart@@
sme@@
smell
smes
smi@@
smit@@
smitgli@@
smith
smo@@
smoke
smoking
smooth
smooth@@
smoothly
smopoli@@
sms
smu
smu@@
smus
sn@@
snack
snacks
snow
snow@@
so
so@@
so-@@
sob@@
sobald
so-called
soci
soci@@
social
socialist
socialists
socially
societies
society
socio-@@
socio-economic
sodass
soeben
soever
sof@@
sofa
sofar
sofern
sofia
sofor@@
sofort
sofortige
soft
soft@@
softwar@@
software
-software
software@@
software-@@
sog@@
sogar
sogenannte
sogenannten
sohn
soil
sol
sol@@
solana
solange
solar
solar@@
solarium
solch
solche
solchen
solcher
solches
sold
soldaten
soldi@@
soldiers
sole
solely
soli
soli@@
solid
solidar@@
solidarität
solidaritäts@@
solidarity
solide
solidi@@
soll
soll@@
solle
sollen
sollte
sollten
solo
solution
solutions
solve
solved
solven@@
solving
som
som@@
somalia
some
some@@
somebody
somehow
someone
something
sometimes
somewhat
somewhere
somit
somm@@
sommer
sommer@@
son
son@@
sön@@
sonder@@
sondern
song
songs
sonn@@
sonne
sonnen@@
sonnent@@
sonnenunter@@
sonni@@
sonntag
sono
sons
sonst
sonstige
sonstigen
sont
sony
soon
sooner
sophistic@@
sophisticated
sor
sor@@
sorg@@
sorge
sorge@@
sorgen
sorgfäl@@
sorgfalt
sorgfältig
sorgt
sorgung
sorgungs@@
sorry
sort
sortiment
sortium
sorts
sos
sou@@
sought
soul
sound
sound@@
sounds
sour@@
sourc@@
source
sources
sourcing
south
south-@@
southern
souven@@
souveränität
sover@@
sovereign
sovereign@@
sovereignty
sovi@@
soviel
soviet
sow@@
soweit
sowie
sowje@@
sowjetunion
sowohl
sozi@@
sozial
sozial-
sozial@@
soziale
sozialen
sozialer
sozialisten
sozialistischen
sozusagen
sp
sp@@
spa
spä@@
spac@@
space
spaces
spacious
spain
spak@@
spam
span
span@@
spani@@
spanien
spaniens
spanisch
spanische
spanischen
spanish
spann@@
spannen
spannende
spannung
spannungen
spar@@
spare
sparen
spark
spark@@
spart
spartei
spartei@@
sparteien
spartn@@
spartner
spartner@@
spartnern
sparungen
spaß
spät
spät@@
späten
später
späteren
spätestens
spati@@
spazi
spazi@@
spazier@@
spaziergän@@
spaziergang
spe@@
-spe@@
speak
speak@@
speaker
speakers
speaking
speaks
spec
spec@@
speci@@
special
specialised
specialist
specialists
specialities
specialized
specially
species
specific
specific@@
specifically
specification
specifications
specified
specify
spectac
spectac@@
spectacular
spective
spectrum
speculation
speech
speeches
speed
speeds
spei@@
speicher
speicher@@
speichern
speicherung
speise@@
speisen
spek@@
spektak@@
spektakul@@
spektrum
spekul@@
spell
spend
spenden
spending
spent
sper@@
sperr@@
spezi
spezi@@
spezial@@
spezialisiert
spezialisten
spezialitäten
speziell
spezielle
speziellen
spezielles
spezif@@
spezifische
spezifischen
spezifischer
sphäre
sphase
sphere
spi@@
spieg@@
spiegel
spiegel@@
spiegeln
spiegelt
spiel
spiel@@
spiele
spielen
spieler
spielern
spielraum
spiels
spielt
spielte
spir@@
spired
spiri
spiri@@
spirit
spirit@@
spiritu@@
spiritual
spit@@
spite
spitz@@
spitze
spitzen@@
splan
splan@@
splans
splatz
splen@@
splendid
split
split@@
spo@@
spock
spoke
spoken
spons@@
sponsor@@
spont@@
spor@@
sport
sport@@
sporting
sports
spot
spot@@
spots
spr@@
spra@@
sprach
sprach@@
sprache
sprachen
sprachige
sprachigen
spräsi@@
spre@@
spread
spreading
sprech@@
spreche
sprechen
sprechend
sprechende
sprecher
sprechung
spreis
spricht
sprin@@
spring
springen
springs
sprit@@
spru@@
sprü@@
spruch
sprüche
sprüchen
sprün@@
sprung
spunkt
spür@@
spuren
spüren
spy@@
sq
sq@@
sql
sql-@@
squ
squ@@
squar@@
square
sr@@
sri
ss
ss@@
ssa
sse
sse@@
ssel
ssel@@
ssen
ßen@@
ßer
ßer@@
ßes
ssi
ssi@@
ssier
ssiers
ßig
ssige
ssigen
ssl
ßnahmen
sson
ßt
ßte
ßten
st
st.
st.@@
st@@
st-@@
sta
stä
sta@@
stä@@
staat
staat@@
staaten
staates
staatliche
staatlichen
staatlicher
staatlichkeit
staats-
staats@@
staatsan@@
stab
stab@@
stabil
stabil@@
stabile
stabilen
stabili
stabili@@
stabilität
stabilitäts@@
stability
stable
stad@@
städ@@
stadium
stadt
stadt@@
städte
städten
stadtteil
stadtz@@
stadtzentrum
staff
staff@@
stag
stag@@
stage
stages
stahl
stahl@@
stain
stain@@
stained
stainless
stairs
stak@@
stake
stakeholders
stal@@
stalin
stall@@
stamm@@
stammen
stammt
stan
stan@@
stän@@
stance
stances
stand
stand@@
ständ@@
standard
standard@@
standard-@@
standardi@@
standardis@@
standards
stände
standen
ständen
standes
ständig
ständige
ständigen
ständiger
ständigkeit
standing
standor@@
standort
standorte
standorten
standpunkt
standpunkte
stands
stands@@
stant
stanti
stanti@@
stanz
stanzen
star
star@@
stär@@
starb
starfleet
stark
stark@@
stärk@@
starke
stärke
starken
stärken
starker
stärker
stärkere
stärkeren
starkes
stärksten
stärkt
stärkung
stars
start
start@@
started
starten
startet
starting
starts
staste
stat
stat@@
stät@@
state
state-@@
stated
statement
statements
state-of-the-art
states
static
stätigkeit
stating
station
station@@
stationen
stations
statis@@
statisti@@
statistical
statistics
statistik
statistiken
statistischen
statt
statt@@
stattdessen
stätte
statten
stätten
stattfand
stattfin@@
stattfinden
stattfindenden
stattfindet
stattgefunden
stattung
status
statut
statut@@
statute
statutory
stau@@
staun@@
stav
stav@@
stay
stayed
staying
stays
ste
ste@@
stead
steady
steam
stechn@@
stechnik
stechnologie
stechnologien
steck@@
stecken
steckt
sted
steel
steep
stef@@
stefan
steh
steh@@
stehe
stehen
stehend
stehende
stehenden
steht
stei@@
steigen
steigen@@
steigende
steigenden
steigern
steigerung
steigt
steil
steil@@
stein
stein@@
steinberg
steine
stell@@
stellbar
stelle
stellen
stellen@@
stellenwert
steller
stellern
stelli@@
stellt
stellte
stellten
stellung
stellungen
stellungnahme
stellungnahmen
stellungs@@
stellvertre@@
stem
sten
sten@@
stens
stenten
step
step@@
steph@@
stephen
steps
ster
ster@@
-ster@@
sterben
stere@@
stered
steri@@
stering
sterity
stern
stern@@
sterne
-sterne
-sterne-@@
-sterne-hotel
sternen@@
sterrei@@
sters
stes
stetig
stets
steuer
steuer@@
steuern
steuerung
steve
sti
sti@@
-sti@@
stic
stich@@
stick
stieg
stieg@@
stiftung
stig
stige
stigen
stil
stil@@
still
still@@
stilvolle
stim@@
stimm@@
stimme
stimmen
stimmt
stimmung
stimul@@
stimulate
stimulating
stimulus
sting
stipul@@
stir@@
stische
stischen
stit@@
stitu
stitu@@
stitute
stituted
stitutes
stitution
stly
sto
stö
sto@@
stö@@
stock
stock@@
stockhol@@
stockholm
stocks
stoff
stoff@@
stoffe
stoffen
stol
stolz
stom@@
ston
stone
stones
stood
stop
stop@@
stopp@@
stopped
stoppen
stops
stor@@
stör@@
storage
store
stored
stores
stories
storm
storni@@
störungen
story
stoß
stöße
stoßen
stößt
str@@
stra
strä
stra@@
strä@@
straf@@
strafe
strafen
strafre@@
strafrecht@@
straft@@
straftaten
sträger
strah@@
strahlung
strai@@
straight
straight@@
straightforward
stran@@
strand
strand@@
strände
stränden
strange
stras@@
strasbourg
straß@@
straßburg
strasse
straßen
straßen@@
straßenverkehr
strateg@@
strategic
strategie
strategien
strategies
strategisch
strategische
strategischen
strategischer
strategy
stration
stre@@
stream
stream@@
strebt
strecke
strecken
street
streets
strei
strei@@
streichen
streit
streit@@
streitigkeiten
stren@@
streng
streng@@
strengen
strengere
strength
strength@@
strengthen
strengthened
strengthening
strengths
stres@@
stress
stressed
stresses
stret@@
stretch
stri
stri@@
stric@@
strich
strict
stricter
strictly
strike
strikes
striking
strikt
string
stringent
strip
strive
stro
stro@@
strö@@
stroll
strom
ström
strom@@
stron@@
strong
strong@@
stronger
strongest
strongly
stronom@@
stru
stru@@
struc@@
struck
struction
structural
structure
structured
structures
struggle
struktur
struktur@@
strukturelle
strukturellen
strukturen
stry
sts
stu
stu@@
stub@@
stuck
stück
stück@@
stücke
stücken
student
student@@
studenten
students
studi@@
studie
studied
studien
studien@@
studieren
studierte
studies
studio
studios
studium
study
studying
stufe
stufen
stuff
stuffs
stuhl
stün@@
stunde
stunden
stunden@@
stunden-@@
stung
stunning
stup@@
stur@@
stür@@
stürzen
stuttgar@@
stuttgart
stütz@@
stützen
stützt
sty
sty@@
style
styles
stylish
su
sü
su@@
sü@@
sub
sub@@
sub-@@
sub-categories
subj@@
subject
subjected
subjects
subjek@@
submission
submit
submitted
submitting
subscri@@
subscribe
subscription
subsequent
subsequently
subsi@@
subsidi@@
subsidiar@@
subsidiaries
subsidiarity
subsidiary
subsidies
substan@@
substance
substances
substanti@@
substantial
substantially
substanz
substanzen
substitute
subway
succ@@
succeed
succeeded
success
success@@
successes
successful
successfully
successor
such
such@@
suche
suchen
sucht
süd@@
südafrika
südameri@@
sudan
sudden
suddenly
süden
südkorea
südlich
südlichen
südo@@
südti@@
südtirol
sue
sues
suff@@
suffer
suffered
suffering
suffici@@
sufficient
sufficiently
sug@@
sugar
sugges@@
suggest
suggest@@
suggested
suggestion
suggestions
suggests
suici@@
suicide
suit
suitable
suite
suited
suiten
suites
suits
sul@@
sum
sum@@
summ@@
summary
summe
summer
summit
sums
sun
sun@@
sün@@
sunday
sung
sunny
suns@@
sunshine
sup@@
super
super@@
superb
superior
supervision
supervisory
supp@@
suppl@@
supplement
supplementary
supplied
supplier
suppliers
supplies
supply
supplying
suppor@@
support
support@@
supported
supporters
supporting
supports
supposed
supposedly
supran@@
supreme
sur
sur@@
surance
sure
surely
surf
surface
surfaces
surfen
surfing
surgery
surplus
surpris@@
surprise
surprised
surprising
surround@@
surrounded
surrounding
surroundings
surv@@
surve@@
surveillance
survey
survi@@
survival
survive
sus
sus@@
susp@@
suspect
suspend
suspended
suspension
süß@@
sustain
sustain@@
sustainability
sustainable
sustained
suu
sv
sv@@
sw@@
swe@@
sweden
swedish
sweet
sweise
swi
swi@@
swif@@
swim
swimming
swimming@@
swimmingpool
swis@@
swiss
swiss@@
swit@@
switch
switching
switz@@
switzerland
swoboda
sy
sy@@
sydney
sym@@
symb@@
symbo@@
symbol
symbole
symboli@@
symbolic
symbols
symp@@
sympath@@
sympathy
symph@@
symptoms
syn@@
synchron@@
synthetic
syri@@
syria
syst@@
system
-system
system@@
systematic
systematically
systematisch
systeme
systemen
systems
sz@@
szen@@
szene
ſ
ſ@@
t
ť
ţ
ṭ
t-
t.
t.@@
t@@
t-@@
-t@@
ť@@
Ť@@
ţ@@
Ţ@@
ṭ@@
ț@@
ta
tä
ta@@
tä@@
tab
tab@@
tabak
tabak@@
tabelle
tabellen
tability
table
tabled
tables
tac
tac@@
tack@@
tackl@@
tackle
tackled
tackling
tag
tag@@
tage
tage@@
tagen
tages
tages@@
täglich
tägliche
täglichen
tags
tags@@
tagung
tagungen
tagungs@@
tai@@
tail
tail@@
tailored
tails
tain
tain@@
taine
tained
taining
tainment
tains
taire
taiwan
tak@@
take
taken
takes
taking
takings
tal
tal@@
talent
tali@@
taliban
talk
talked
talking
talks
talter
tam@@
tamp@@
tampere
tan
tan@@
tangible
tank
tank@@
tanks
tant
tanz
tanz@@
tap@@
tape
tär
tar@@
target
target@@
targeted
targets
tari@@
tarif@@
tarifa
tariff
tariffs
tas
task
tasks
tast@@
tastat@@
taste
tastefully
tastes
tasty
tat
tät
tat@@
tät@@
taten
täten
tätig
tätigen
tätigkeit
tätigkeiten
tätigkeits@@
tation
tations
tats@@
täts@@
tatsäch@@
tatsache
tatsachen
tatsächlich
tatsächliche
tatsächlichen
tau@@
tauch@@
tauchen
taught
taus@@
tauschen
tausend
tausende
tax
tax@@
taxation
taxes
taxi
taxpay@@
taxpayers
tay@@
tbar
tchen
tcp
te
té
te@@
te-@@
tea
teach
teach@@
teacher
teachers
teaching
team
team@@
teams
teb@@
tec@@
tech
techn@@
techni@@
technical
technically
technik
techniken
technique
techniques
technisch
technische
technischen
technischer
technologi
technologi@@
technological
technologie
technologie@@
technologien
technologies
technologischen
technology
ted
tedly
tee
teen
teen@@
teenth
teeth
tei
tei@@
teil
teil@@
teile
teilen
teilgenommen
teilnahme
teilnehmen
teilnehmenden
teilnehmer
teilnehmer@@
teilnehmern
teils
teilt
teilte
teilten
teilung
teilungen
teilweise
teilzunehmen
tel
tel@@
telec@@
telecomm@@
telecommunications
telef@@
telefon
telefon@@
telefonisch
telefonnummer
telek@@
telekommunik@@
telekommunikation
telekommunikations@@
teleph@@
telephone
television
tell
telling
tells
tels
tem
tem@@
temp@@
tempel
temperat@@
temperatur
temperatur@@
temperature
temperaturen
temperatures
template
templates
temple
tempo
tempor@@
temporarily
temporary
ten
ten@@
ten-@@
tend
tende
tenden
tendency
tendenz
tender
tends
tene
tened
tenen
tener
teneri@@
tening
tenn@@
tennis
tennis@@
tens
tension
tensions
tent@@
tention
tep@@
ter
ter@@
ter-@@
tera
tere
tered
teren
terer
teres
terin
tering
terly
term
terme
termin
termin@@
terminal
terminals
termination
termine
termini
terms
tern
tern@@
terne
terns
terr@@
terrace
terraces
terrain
terran@@
terranean
terrasse
terrassen
terri@@
terrible
territ@@
territori@@
territorial
territories
territorium
territory
terror
terror@@
terrorism
terrorismus
terrorismus@@
terrorist
terrorists
ters
tert
terte
terten
terung
terungen
tery
tes
tes@@
test
test@@
teste
tested
testen
testim@@
testing
tests
tet
tete
teten
teu@@
teuer
teur
teure
tex
tex@@
texas
text
text@@
texte
texten
textes
textil@@
textile
textiles
texts
textu@@
th
Þ
th@@
th-@@
Þ@@
thaf@@
thai
thail@@
thailand
thal@@
thalten
than
than@@
thand@@
thank
thanking
thanks
that
thaus
the
the@@
the-@@
theast
theat@@
theater
theater@@
theatre
thei@@
their
theit
them
them@@
thema
themas
themati@@
theme
themen
themen@@
themes
themselves
then
theore@@
theoretical
theorie
theory
ther
ther@@
therap@@
therapeu@@
therapeutic
therapie
therapy
there
there@@
thereby
therefore
thereof
thermal
thermal@@
thermore
thern
thers
therto
therwise
thes
thes@@
these
thesis
thessal@@
thessaloni@@
thessaloniki
thetic
they
thful
thi@@
thias
thick
thick@@
thil@@
thilfe
thin
thin@@
thing
things
think
thinking
thinks
thiop@@
thir@@
third
third-@@
third-country
thirdly
third-party
thirds
thirty
this
thly
tho@@
thodo@@
thof
thomas
thor@@
thorou@@
thorough
thoroughly
thos
those
thotel
thou
thou@@
though
thought
thoughts
thous@@
thousand
thousands
thouse
thr@@
thre@@
thread
threat
threat@@
threaten
threatened
threatening
threatens
threats
three
three-@@
thres@@
threshold
thri@@
thro@@
throp@@
throu
throu@@
through
throughout
throw
thrown
ths
thu@@
thum@@
thumb
thumb@@
thumbnail
thur
thurs@@
thursday
thus
thwest
thy
thyssen@@
thyssenkrupp
ti
ti@@
tia
tian
tibet
tibet@@
tibetan
tible
tic
tic@@
tica
tical
tically
tice
tices
tici@@
ticism
tick
tick@@
ticket
ticket@@
tickets
ticle
tico
tics
ticul@@
tie
tied
tief
tief@@
tiefe
tiefen
tiefer
tiefgreif@@
tien
tier
tier@@
tiere
tieren
tierenden
tiers
tiert
tierte
tierten
tierung
ties
tieth
tif
tiful
tig
tig@@
tige
tigem
tigen
tiger
tigere
tiges
tigh@@
tight
tigkeit
tigkeiten
tigkeits@@
tigste
tigsten
tigt
tigte
tigten
tigung
tigungen
tigungs@@
tik
tik@@
tika
tiken
tiker
til
til@@
tile
tiles
tili@@
tilien
till
till@@
tim
tim@@
tima
timber
time
time-@@
timedi@@
timedia
timely
timent
times
timet@@
timetable
timing
timm@@
timme
timmen
timmung
timor
tims
tin
t-in
tin@@
ting
tini
tinu
tinu@@
tiny
tio
tion
tion@@
tion-@@
tional
tionality
tionally
tionary
tioned
tionelle
tionen
tioning
tions
tions@@
tious
tip
tipps
tips
tiqu@@
tique
tiques
tired
tis
tis@@
tisch
tisch@@
tische
tischem
tischen
tischer
tisches
tise
tish
tism
tismus
tissue
tit@@
titan
titel
title
titles
titude
tium
tiv
tiv@@
tival
tivals
tive
tively
tiven
tiveness
tiver
tives
tivi
tivi@@
tivität
tivitäten
tivities
tivity
tiz
tiz@@
tizen
tle
tled
tler
tless
tlich
tliche
tlichen
tlicher
tliches
tly
tm
tn@@
tner
tness
tng
tnis
tnis@@
tnismäßig
tnisse
tnissen
to
tö
to@@
to-@@
-to-@@
tö@@
tob@@
tobacco
tober
tochter
tochter@@
tod
today
tode
todes@@
toff@@
together
toil@@
toilet
tok@@
tokyo
tol@@
told
toler@@
tolerance
toleranz
toll
toll@@
tolle
tom
tom@@
tomorrow
toms
ton
ton@@
tone
tones
tongue
tonight
tonn@@
tonnen
tonnes
tons
tony
too
took
tool
tool@@
tools
top
top@@
top-@@
topic
topical
topics
tops
tor
tor@@
toral
torate
toren
torial
tories
torre
tors
torture
tory
tos
tosk@@
toskana
tot
tot@@
total
totalit@@
totally
toten
töten
tou@@
touch
touched
tough
toul@@
tour
tour@@
touren
tourism
tourismus
tourismus@@
tourist
tourist@@
touristen
touristen@@
touristischen
tourists
tournament
tournaments
tours
tout
tow@@
toward
towards
towels
tower
towers
town
towns
tox@@
toxic
toys
tp
tr@@
tra
tra@@
tra-@@
trä@@
trac@@
trace
traces
träch@@
track
tracking
tracks
trade
trade@@
trademark
trademarks
tradi@@
trading
tradition
tradition@@
traditional
traditionally
traditionell
traditionelle
traditionellen
traditionen
traditions
traf
traff@@
traffic
trafficking
trag
trag@@
trage
träge
trage@@
tragedy
tragen
trägen
tragic
träglich
tragö@@
tragödie
trags
trags@@
tragt
trägt
tragung
trail
trails
train
train@@
trained
trainer
training
training@@
trainings@@
trains
trak@@
traktionen
tram
tram@@
tran@@
tranqu@@
tranquil
trans@@
transaction
transactions
transaktionen
transatlan@@
transatlantic
transatlantischen
trans-european
transfer
transfer@@
transferred
transferring
transfers
transform
transform@@
transformation
transformed
transi@@
transit
transit@@
transition
transitional
transl@@
translat@@
translate
translated
translation
translations
translators
transmission
transmitted
transnational
transp@@
transpar@@
transparency
transparent
transparente
transparenten
transparenter
transparenz
transplan@@
transpor@@
transport
transport@@
transportation
transported
transportiert
transposition
traq
tras
tras@@
trat
tration
trau@@
trauen
traum
traum@@
traums
traur@@
trav@@
travel
travel@@
travelers
traveling
travellers
travelling
tre
tre@@
treas@@
treat
treat@@
treated
treaties
treating
treatment
treatments
treaty
tree
trees
treff@@
treffen
treffend
treffpunkt
treib@@
treiben
treiber
treibung
trek
tremend@@
tremendous
trend
trend@@
trends
trendy
trenn@@
trennen
trennung
tres
très
treten
tri
tri@@
trial
trials
tribute
trieb
trieb@@
trieben
tried
tries
trifft
trig@@
trigger
trilli@@
trin@@
trink@@
trinken
trip
triple
trips
tritt
tritt@@
tritte
tritts
tro
tro@@
trock@@
trocken@@
trockner
trol@@
troll@@
tron@@
troops
trop@@
tropical
trotz
trotzdem
troub@@
trouble
tru
tru@@
truck
trucks
true
trug
truly
trum
truppen
trust
truth
try
trying
ts
ts@@
tsch@@
tschaf@@
tschaft
tschaften
tschech@@
tschechische
tschechischen
tschrift
tseite
tsp
tsp@@
tsprü@@
tt
tt@@
ttä
ttä@@
tter
ttern
tu
tu@@
tü@@
tual
tually
tub
tube
tücher
tude
tudes
tuesday
tum
tum@@
tun
tun@@
tuna
tune
tunes
tung
tungen
tungs@@
tunisi@@
tunisia
tunnel
tur
tür
tur@@
tür@@
tural
ture
tured
turen
türen
tures
turin
turing
turk@@
türk@@
türkei
turkey
türkische
türkischen
turkish
turm
turn
turn@@
turned
turni@@
turnier
turning
turnover
turns
tus
tus@@
tuscan
tuscany
tut
tut@@
tv
-tv
tv@@
tv-@@
tw@@
tware
tweit
twelve
twen@@
twenty
twenty-@@
twi
twi@@
twice
twin
twitter
two
two-@@
ty
ty@@
ty-@@
tyard
typ
typ@@
type
typen
types
typical
typically
typisch
typische
typischen
tyro@@
tyrol
tz
tz@@
tzimmer
™
ʦ
ʦ@@
u
ú
Ú
ù
Ù
û
Û
ü
Ü
ǔ
ŭ
ū
ũ
ů
Ů
ų
ű
ủ
ư
ṳ
ữ
ʊ
ử
ự
u.
u.@@
u.a.
u.s.
u@@
u-@@
ｕ@@
ú@@
Ú@@
ù@@
Ù@@
û@@
Û@@
ü@@
Ü@@
ǔ@@
ŭ@@
ū@@
Ū@@
ũ@@
ů@@
Ů@@
ų@@
ű@@
Ű@@
ư@@
ụ@@
ṳ@@
ứ@@
ừ@@
ữ@@
ʊ@@
ử@@
ự@@
ua
ual
ually
uan
ub
ub@@
u-b@@
üb@@
uba
u-bahn
u-bahn@@
üben
über
Über
über@@
Über@@
überall
überarbeitet
Überarbeitung
überaus
Überblick
überdenken
überein
überein@@
Übereinkommen
Übereinstimmung
überflü@@
Übergang
Übergangs@@
übergeben
übergreif@@
übergreifende
übergreifenden
überhaupt
überlassen
überleben
Überleben
überlegen
Überlegungen
übermitteln
übermittelt
Übermittlung
Überna@@
übernachten
Übernachtung
Übernachtungen
übernahm
Übernahme
übernehmen
übernimmt
übernommen
überprüfen
überprüft
Überprüfung
überra@@
Überra@@
überraschend
überrascht
Überraschung
übersch@@
Übersch@@
überschrei@@
überschreiten
überschritten
Überschw@@
Überschwemm@@
Überschwemmungen
übersehen
Übersetz@@
übersetzen
Übersetzer
übersetzt
Übersetzung
Übersetzungen
Übersetzungs@@
Übersicht
übertrag@@
Übertrag@@
übertragen
übertragung
Übertragung
überwach@@
Überwach@@
überwachen
überwacht
überwachung
Überwachung
Überwachungs@@
überwälti@@
überwiegend
überwinden
überwunden
überzeu@@
überzeugen
überzeugt
Überzeugung
üblich
üblichen
üblicherweise
übri@@
Übri@@
übrig
übrigen
Übrigen
übrigens
übt
ubun@@
übung
uc@@
uch
üch@@
ück
ück@@
ücke
ücken
ücks@@
ückt
ud
ude
ue
ue@@
ueber
uel
uen
uer
ues
ufen
ufer
uft
ug@@
uganda
üh@@
ühen
ühle
ühlen
ühm@@
uhr
uhr@@
ühr@@
ühren
ühungen
ui
uis
uit@@
uk
uk@@
ukra@@
ukraine
ukrainian
ul
ul@@
ül@@
ula
ular
ular@@
ularly
ulate
ulated
ulating
ulation
ulations
ulative
uld
ule
ulen
ules
uli
uli@@
ulieren
uliert
ull
ull@@
uls@@
ulsory
ult
ult@@
ultim@@
ultimate
ultimately
ultin@@
ultra@@
ultra-@@
ults
ultur
ultur@@
um
um@@
um-@@
uma
umb@@
umbr@@
ume
umen
umen@@
ümer
umes
umfang
umfang@@
umfangreiche
umfangreichen
umfangreiches
umfassen
umfassend
umfassende
umfassenden
umfassender
umfassendes
umfasst
umfeld
umfrage
umgang
umgeb@@
umgeben
umgebung
umgehen
umgehend
umgekehrt
umgesetzt
umgewandelt
umin@@
umini@@
uminium
umliegenden
umm@@
ümm@@
ummer
umn
ump
ump@@
umpen
umph
umping
umps
ums
ums@@
umsatz
umsatz@@
umsetzen
umsetzung
umso
umstand
umstände
umständen
umstellung
umstr@@
umstritt@@
umwel@@
umwelt
umwelt-
umwelt@@
umweltschutz
umzu@@
umzusetzen
un
ún
un@@
un-@@
ün@@
una
unab@@
unabhängi@@
unabhängig
unabhängige
unabhängigen
unabhängiger
unabhängigkeit
unable
unacceptable
unanim@@
unanimity
unanimous
unanimously
unas
unbe@@
unbedingt
unberühr@@
unbesch@@
unbest@@
unc@@
uncertain
uncertainty
unch
unci@@
unclear
und
-und
und@@
ünd@@
unde
unded
unden
unden@@
undene
undenen
under
under@@
under-@@
underground
undering
underline
underlying
undermine
undermined
undermining
undern
understand
understand@@
understandable
understanding
understands
understood
undertake
undertaken
undertaking
undertakings
undes
undes@@
undet
undoub@@
undoubtedly
undry
unds
une
unemployed
unemployment
unen
unent@@
unentgel@@
unentgeltlich
unequi@@
uner
uner@@
unes@@
unesco
unexpected
ünf@@
unfair
unfall
unfälle
unfor@@
unforget@@
unforgettable
unfortunate
unfortunately
ung
ung@@
ungal@@
ungalows
ungar@@
ungarische
ungarischen
ungarn
unge
unge@@
ungeachtet
ungefähr
ungeh@@
ungel@@
ungen
ungen@@
unger
unger@@
unglaub@@
unglaublich
ungleich@@
ungleichheit
ungleichheiten
unglück@@
ungs
ungs-
ungs@@
ungsan@@
ungsanlagen
ungsch@@
ungser@@
ungsergebnisse
ungsh@@
ungsp@@
ungsperiode
ungsphase
ungst@@
ungstechnik
ungsum@@
ungsver@@
ungsverfahren
uni
uni@@
unic@@
unication
unications
unification
unified
uniform
unigen
unik@@
unilater@@
unilateral
union
unions
unions@@
unior
uniqu@@
unique
unit
unite
united
unities
units
unity
univer@@
univers@@
universal
universe
universi@@
universität
universitäten
universitäts@@
universities
university
universum
unix
unk
unk@@
unken
unknow@@
unknown
unkomp@@
unkt
unkte
unkten
unlau@@
unless
unlike
unlikely
unlimited
unmittel@@
unmittelbar
unmittelbare
unmittelbaren
unmittelbarer
unmöglich
unn@@
unnecessary
unnel
unnels
unning
unnö@@
unnötig
unny
uno
uno-@@
unpreced@@
unprecedented
unrecht
unregelmäßigkeiten
unruhi@@
uns
uns@@
üns@@
unsch
unser
unser@@
unsere
unserem
unseren
unserer
unseres
unsicherheit
unstable
unt
unt@@
unte@@
unten
unter
unter@@
unterbre@@
unterbrei@@
unterbreiten
unterbreitet
unterbro@@
unterbrochen
unterdrückung
untereinander
unteren
untergebracht
unterhalb
unterhaltung
unterhaltungs@@
unterkunft
unterkünfte
unterlagen
unterliegen
unterliegt
untern@@
unternehm@@
unternehmen
unternehmens
unternehmens@@
unternehmer
unternehmer@@
unternommen
unterri@@
unterricht
unterrichtet
untersagt
untersch@@
unterscheiden
unterscheidet
unterschied
unterschied@@
unterschiede
unterschiedlich
unterschiedliche
unterschiedlichen
unterschiedlicher
unterschiedlichsten
unterst@@
unterstreicht
unterstütz@@
unterstütze
unterstützen
unterstützt
unterstützte
unterstützten
unterstützung
untersu@@
untersuchen
untersucht
untersuchung
untersuchungen
unterwegs
unterzeichnen
unterzeichnet
unterzeichnung
until
unting
unto
unüber@@
unum@@
unusual
unver@@
unverändert
unverbin@@
unvergess@@
unvergesslichen
unvergleich@@
unvermei@@
unverzicht@@
unverzüglich
unweit
unya
unzählige
unzähligen
unzureich@@
unzureichend
up
-up
up@@
up-@@
upcoming
updat@@
update
updated
updates
updating
upgra@@
upgrade
upgraded
uph@@
uphold
upload
upon
üpp@@
upper
ups
up-to-@@
up-to-date
ur
ür
ur@@
ür@@
ura
ural
urance
urant
urants
urban
urban@@
urch
urch@@
ure
üre
ured
urement
uren
üren
urer
ures
ürf@@
ürfen
urg@@
urge
urged
urgency
urgent
urgently
urheber@@
uri@@
uries
uring
urities
urity
ürk@@
url
urlau@@
urlaub
urlaub@@
urlauber
urlaubs@@
urop
urop@@
urred
urs
urs@@
ursache
ursachen
urspr@@
ursprün@@
ursprung
ursprünglich
ursprüngliche
ursprünglichen
urt
urteil
uru
uru@@
urugu@@
ury
us
us@@
us-@@
üs@@
usa
usable
usage
usal
usb
usb-@@
usd
us-dollar
use
use@@
used
useful
user
user-@@
usern@@
users
uses
useum
ush
ush@@
usi@@
usin@@
using
uss
uss@@
üsse
üssel
ussel@@
üssel@@
ussels
üssen
usses
ussion
ussions
ussy
ust
üst@@
üste
üstet
usual
usually
usw.
ut
ut@@
üt@@
uta
utable
utation
ute
uted
utely
uten
uten@@
utenant
uter
uter@@
utern
uters
utes
utili@@
utility
uting
ution
utions
utive
utmost
utor
uts
utt@@
ütte
ütten
utter
uttgar@@
utting
uttle
uty
utz
utz@@
ütz@@
utzen
ützen
utzt
uung
ux
uxe
uz@@
uzzi
v
v.
v.@@
v@@
v-@@
Ｖ@@
ʋ@@
ʌ@@
va
va@@
vá@@
vable
vac
vac@@
vacation
vacc@@
vacu@@
vacuum
vague
vaku@@
val
val@@
valencia
valent
vali@@
valid
validity
vall@@
valle
valley
valleys
vals
valu
valu@@
valuable
value
valued
values
van
van@@
vanc@@
vancou@@
var
var@@
vari@@
variable
variablen
variables
variante
varianten
variations
varied
varies
varieties
variety
various
vary
varying
vas
vast
vat
vater
vati@@
vation
ve
ve@@
ve-@@
veau
veaus
ved
veg@@
vegas
veget@@
vegetable
vegetables
vegetation
veh
veh@@
vehic@@
vehicle
vehicles
vei@@
vel
vel@@
vel-@@
vell@@
velop
velop@@
vels
vely
vement
vements
ven
ven@@
vend@@
vene@@
venedig
veness
venezu@@
venezuela
venice
vent
vent@@
vente
venti
venti@@
vention
vention@@
ventionen
ventive
vents
venture
venue
venues
ver
ver@@
ver-@@
verab@@
verabschied@@
verabschieden
verabschiedet
verabschiedung
verage
verages
veran@@
verän@@
veränder@@
verändern
verändert
veränderte
veränderten
veränderung
veränderungen
verank@@
verankert
veranlas@@
veranlasst
veranst@@
veranstalt@@
veranstalter
veranstaltet
veranstaltung
veranstaltungen
veranstaltungs@@
verantwor@@
verantwort@@
verantwortlich
verantwortlichen
verantwortlichkeit
verantwortung
verantwortungs@@
verarbeiten
verarbeitet
verarbeitung
verb@@
verband
verbände
verbesser@@
verbessern
verbessert
verbesserte
verbesserten
verbesserung
verbesserungen
verbieten
verbin@@
verbinden
verbindet
verbindlich
verbindlichen
verbindung
verbindungen
verbindungs@@
verblei@@
verbot
verboten
verbrau@@
verbrauch
verbraucher
verbraucher@@
verbrauchern
verbraucherschutz
verbre@@
verbrechen
verbrei@@
verbreiten
verbreitet
verbreitete
verbreitung
verbringen
verbunden
verbundene
verbundenen
verbündeten
verd@@
verdanken
verdienen
verdient
vere
verein
verein@@
vereinbar
vereinbar@@
vereinbaren
vereinbart
vereinbarten
vereinbarung
vereinbarungen
vereinen
vereinfachen
vereinfacht
vereinig@@
vereinigte
vereinigten
vereinigung
vereint
vereinten
veren
verf@@
verfahren
verfahrens
verfahrens@@
verfas@@
verfass@@
verfasst
verfassung
verfassungs@@
verfol@@
verfolgen
verfolgt
verfolgung
verfü@@
verfüg@@
verfügbar
verfügbaren
verfügbarkeit
verfügen
verfügt
verfügung
vergabe
vergangen
vergangen@@
vergangenen
vergangenheit
vergeben
vergessen
vergleich
vergleich@@
vergleichbar
vergleichen
verglichen
vergnü@@
vergnügen
vergröß@@
vergrößern
vergü@@
verhaftet
verhäl@@
verhalten
verhaltens@@
verhaltenskodex
verhältnis
verhältnis@@
verhältnisse
verhand@@
verhandeln
verhandelt
verhandlungen
verhandlungs@@
verhe@@
verheu@@
verheugen
verhindern
verhindert
veri@@
verification
verified
verify
verk@@
verkauf
verkauf@@
verkaufen
verkäufer
verkaufs@@
verkauft
verkehr
verkehr@@
verkehrs
verkehrs@@
verkehrsmittel
verkehrsmitteln
verknü@@
verknüpft
verknüpfung
verkörper@@
verkün@@
verl@@
verlag
verlag@@
verlagerung
verlän@@
verlangen
verlängern
verlängert
verlängerung
verlangt
verläss@@
verlassen
verlauf
verlaufen
verläuft
verlei@@
verleih
verleihen
verleiht
verletz@@
verletzen
verletzt
verletzung
verletzungen
verli@@
verliehen
verlieren
verliert
verlin@@
verlor@@
verloren
verlu@@
verlust
verluste
vermark@@
vermarktung
vermehr@@
vermei@@
vermeiden
vermeidung
vermieden
vermieten
vermin@@
vermis@@
vermitt@@
vermitteln
vermittelt
vermittlung
vermittlungs@@
vermö@@
vermögen
vermögen@@
vermögens@@
vermu@@
vermut@@
vermutlich
vern
vern@@
vernachlässi@@
vernehmen
verni@@
vernicht@@
vernichtung
vernun@@
vernünf@@
vernünftig
vernünftigen
veröffent@@
veröffentlich@@
veröffentlichen
veröffentlicht
veröffentlichte
veröffentlichten
veröffentlichung
veröffentlichungen
verona
verordnung
verordnungen
verpack@@
verpackung
verpackungs@@
verpfli@@
verpflichten
verpflichtet
verpflichtung
verpflichtungen
verringert
verringerung
vers
vers@@
versal
versamm@@
versammlung
versand
versand@@
versary
versatile
versch@@
verschaffen
verschärft
verschieben
verschied@@
verschieden
verschieden@@
verschiedene
verschiedenen
verschiedener
verschiedensten
verschle@@
verschlechtert
verschlechterung
verschlüssel@@
verschmutzung
verschoben
verschul@@
verschwinden
verschwunden
verse
versehen
versetzt
versi
versi@@
versichert
versicherung
versicherungs@@
version
versionen
versions
versity
versorgen
versorgt
versorgung
versorgungs@@
versprechen
verspricht
versprochen
verst@@
verständ@@
verstanden
verständlich
verständnis
verstärk@@
verstärken
verstärkt
verstärkte
verstärkten
verstärkung
versteck@@
verstehe
verstehen
versteht
verstoß
verstöße
verstoßen
verstößt
versu@@
versuch
versuche
versuchen
versucht
vert@@
vertei@@
verteidigt
verteidigung
verteidigungs@@
verteilen
verteilt
verteilung
verth@@
vertheless
verti@@
vertical
vertiefen
vertiefung
vertik@@
vertr@@
vertra@@
verträ@@
vertrag
vertrag@@
verträge
verträgen
vertrages
vertrags
vertrags@@
vertrau@@
vertrauen
vertrauens
vertrauens@@
vertraulich
vertraut
vertre@@
vertreten
vertreter
vertreterin
vertretern
vertretung
vertrieb
vertrieb@@
vertrieben
vertriebs@@
vertritt
verts
verur@@
verursachen
verursacht
verurteilt
vervielfäl@@
verw@@
verwal@@
verwalten
verwaltet
verwaltung
verwaltungs@@
verwand@@
verwandeln
verwandelt
verwei@@
verweigern
verweigert
verweisen
verweist
verwen@@
verwende
verwenden
verwendet
verwendete
verwendeten
verwendung
verwiesen
verwir@@
verwirklichen
verwirklicht
verwirklichung
verwirrung
verwöh@@
verwöhnen
very
verzeich@@
verzeichnen
verzeichnis
verzerr@@
verzi@@
verzichten
verzichtet
verzö@@
verzögerung
verzögerungen
ves
ves@@
vessel
vessels
veter@@
veto
vez
vi
vi@@
via
viable
vian
vibr@@
vibrant
vic
vic@@
vice
vice-@@
vice-president
vicinity
vict@@
victim
victims
victoria
victory
vide@@
video
video@@
video-@@
videos
vidu
vidu@@
vie
vie@@
vieh@@
viel
viel@@
viele
vielen
vieler
vieles
vielfach
vielfäl@@
vielfalt
vielfältige
vielfältigen
vielleicht
vielmehr
vielsei@@
vielzahl
vienna
vier
vier@@
viera
vieren
viert
vierte
viertel
vierten
vierung
vierungen
vies
viet@@
vietnam
vietnam@@
view
view@@
viewed
viewer
viewing
views
vig@@
vigil@@
vign@@
vigor@@
vii
vil@@
vill@@
villa
village
villages
villas
ville
villen
vin
vin@@
vinc@@
vinci
vinci@@
vine
vine@@
vineyards
ving
vio
viol@@
violated
violation
violations
violence
violent
vious
viously
vip
vir@@
viren
virgin
viron@@
virtu
virtu@@
virtual
virtually
virtue
virtuelle
virtuellen
virus
viruses
vis
vis@@
visa
visas
vise
vised
visi@@
visibility
visible
vising
vision
vision@@
visions
visit
visit@@
visited
visiting
visitor
visitors
visits
visory
vista
visu@@
visual
vit@@
vital
vitorino
vity
vivi@@
viz@@
vizep@@
vizepräsident
vo
vo@@
vö@@
voc@@
vocal
vocation
vocational
vod@@
vogel@@
voic@@
voice
voices
void
voir
vol@@
völ@@
volcan@@
volk
volk@@
völk@@
völker
völker@@
völkern
volkes
volks@@
volkspartei
volkswagen
volkswirtschaft
voll
voll@@
volle
vollem
vollen
vollendung
voller
volles
völlig
vollkomm@@
vollkommen
vollstän@@
vollständig
vollständige
vollständigen
vollständigkeit
vollsten
volta@@
voltage
volume
volumen
volumes
volunt@@
voluntary
volunte@@
vom
von
von@@
voneinander
voor
vor
vor@@
vorab
voran
voran@@
vorange@@
vorangegangenen
vorant@@
voranzutreiben
voraus
voraus@@
vorausgesetzt
voraussetzung
voraussetzungen
voraussichtlich
vorbeh@@
vorbehal@@
vorbehalte
vorbehalten
vorbei
vorberei@@
vorbereiten
vorbereitet
vorbereitung
vorbereitungen
vorbild
vorder@@
vordergrund
vorfeld
vorgaben
vorgän@@
vorgang
vorgänge
vorgänger
vorge@@
vorgehen
vorgehensweise
vorgelegt
vorgelegte
vorgenommen
vorgesch@@
vorgeschlagen
vorgesehen
vorgesehene
vorgesehenen
vorgestellt
vorhaben
vorhanden
vorhandene
vorhandenen
vorher
vorher@@
vorherige
vorherigen
vorherseh@@
vorjahr
vorkommen
vorlage
vorliegen
vorliegende
vorliegenden
vorliegt
vormittag
vorn
vorne
vornehmen
vorrangi@@
vorrangig
vors
vorsch@@
vorschlag
vorschläge
vorschrift
vorschriften
vorsicht
vorsieht
vorsitz
vorsitz@@
vorsitzende
vorsitzenden
vorsitzender
vorsorge@@
vorstand
vorstellen
vorstellung
vorstellungen
vorteil
vorteil@@
vorteile
vorteilen
vortrag
vorübergehend
vorwand
vorwiegend
vorzu@@
vorzubereiten
vorzüge
vorzugehen
vorzunehmen
vorzustellen
vos
vot@@
vote
voted
voters
votes
voting
votre
vou@@
vous
voy@@
voyager
vp
vre
vri@@
vul@@
vulkan@@
vulner@@
vulnerability
vulnerable
vy
w
w.
w.@@
w@@
w-@@
ŵ@@
wa
wa@@
wä@@
wach@@
wäch@@
wache
wachen
wachs
wachsen
wachsende
wachsenden
wächst
wachst@@
wachstum
wachstum@@
wachstums@@
wacht
wächt
waff@@
waffe
waffen
waffen@@
wag@@
wage
wagen
wages
wäh@@
wahl
wahl@@
wahlen
wählen
wählt
wahr
wahr@@
währ@@
wahre
wahren
während
wahrgenommen
wahrheit
wahrnehm@@
wahrnehmen
wahrnehmung
wahrschein@@
wahrscheinlich
wahrung
währung
währungen
währungs@@
währungsfonds
wai@@
wait
waiting
wake
wal@@
wäl@@
wald
wald@@
wälder
wäldern
waldner
wales
walk
walking
walks
wall
wall@@
walli@@
walls
wallström
walt
wälte
walter
wan
wand
wand@@
wandel
wandeln
wander@@
wandern
wanderung
wanderungen
wann
wanne
want
wanted
wanting
wants
war
war@@
wär@@
warcraft
ward
wards
ware
wäre
ware-@@
wareh@@
waren
wären
waren@@
warm
warm@@
warme
wärme
wärme@@
warmen
warming
warmly
warmth
warned
warning
warnt
warnung
warran@@
warrant
warranty
wars
warsaw
wart
wart@@
warten
wartet
wärtige
wärtigen
wärts
wartung
wartungs@@
warum
was
was@@
wasch@@
wäsche
wash@@
washing
washington
wasn
wasser
wässer
wasser@@
wässer@@
wast@@
waste
wat@@
watch
watching
water
water@@
waters
watson
wav
wav@@
wave
waves
way
ways
wb
wc
we
we@@
weak
weak@@
weaken
weaker
weakness
weaknesses
weal@@
wealth
weap@@
weapon
weapons
wear
wearing
weather
web
web@@
web-@@
webe
weber
webseite
webseiten
website
websites
wech@@
wechs@@
wechsel
wechsel@@
wechseln
wechslungs@@
wed@@
wedding
weder
wedn@@
wednesday
week
week@@
weekend
weekends
weekly
weeks
ween
weg
weg@@
wege
wegen
wegs
wehr
wehr@@
wei
wei@@
weich@@
weichen
weigh@@
weight
weih@@
weihnachten
weihnachts@@
weil
weile
weilen
wein
wein@@
weine
weis
weis@@
weise
weisen
weiß
weiß@@
weiße
weißen
weist
weisung
weisungen
weit
weit@@
weitaus
weite
weitem
weiten
weiter
weiter@@
weiterbildung
weitere
weiteren
weiterentwickelt
weiterentwicklung
weiterer
weiteres
weitergabe
weitergegeben
weitergeleitet
weiterhin
weiterzu@@
weites
weitet
weitgehend
wel
wel@@
welche
welchem
welchen
welcher
welches
welcom@@
welcome
welcomed
welcomes
welcoming
welfare
well
well@@
well-@@
well-being
welle
wellen
wellen@@
well-known
wellness
wellness@@
wellness-@@
wellnessbereich
welt
welt@@
welthand@@
welthandelsorganisation
weltkrieg
weltkrieg@@
weltmarkt
weltweit
weltweite
weltweiten
welve
wen
wen@@
wende
wenden
wendet
wendung
wendungen
wenig
wenig@@
wenige
wenigen
weniger
wenigsten
wenigstens
wenn
wenn@@
wenngleich
went
wer
wer@@
werbe@@
werben
werbung
werde
werden
werdet
were
weren
werfen
werk
werk@@
werke
werken
werks
werks@@
werkzeug
werkzeug@@
werkzeuge
werner
wers
wert
wert@@
werte
werten
werter
wertes
wertet
wertpap@@
wertpapier@@
wertsch@@
wertschö@@
wertung
wertvolle
wertvollen
wes@@
wesen
wesens
wesent@@
wesentlich
wesentliche
wesentlichen
wesentlicher
weshalb
west
west@@
westen
western
westlich
westliche
westlichen
wet
wett@@
wettbewer@@
wettbewerb
wettbewerbs
wettbewerbs@@
wetter
wetter@@
wh
wh@@
what
what@@
whatever
whatsoever
whe@@
wheel
wheels
whel@@
when
whenever
wher@@
where
whereas
whereby
wherever
whether
whi
whi@@
which
whil@@
while
whilst
whirlpool
whit@@
white
who
whol@@
whole
wholehear@@
wholeheartedly
wholes@@
wholly
whom
whose
why
wi
wi@@
wich
wich@@
wichtig
wichtig@@
wichtige
wichtigen
wichtiger
wichtiges
wichtigkeit
wichtigste
wichtigsten
wichts
wick
wick@@
wickelt
wicklung
wid@@
wide
wide-@@
widely
wider
wider@@
wide-ranging
widerspiegeln
widerspiegelt
widersprechen
widerspruch
widerstand
wides@@
widespread
widmen
widmet
widri@@
width
wie
wie@@
wieder
wieder@@
wiederauf@@
wiederaufbau
wiederaufnahme
wiederein@@
wiederherstellung
wiederherzustellen
wiederhol@@
wiederholen
wiederholt
wiederum
wieg@@
wiegend
wien
wiener
wies
wies@@
wiesen
wieso
wieweit
wife
wifi
wi-fi
wig
wik@@
wiki@@
wikic@@
wikicars
wikit@@
wikitra@@
wikitravel
wikitravel-@@
wikitravel-benutzer
wil@@
wild
wild@@
wilhel@@
wilhelm
will
will@@
wille
willen
willi
willi@@
william
willigen
willigung
willing
willing@@
willingness
willkommen
win
win@@
wind
wind@@
winden
windigkeiten
window
window@@
windows
windows-@@
winds
wine
wines
wing
wing@@
winkel
winn@@
winner
winners
winning
wins
winter
winter@@
wir
wir@@
wird
wire
wireless
wirft
wirk@@
wirken
wirklich
wirklichkeit
wirksam
wirksame
wirksamen
wirksamer
wirksamkeit
wirkt
wirkung
wirkungen
wirkungs@@
wirst
wirtschaf@@
wirtschaft
wirtschaft@@
wirtschaftlich
wirtschaftliche
wirtschaftlichen
wirtschaftlicher
wirtschafts-
wirtschafts@@
wirtschaftskrise
wirtschaftspolitik
wirtschaftswachstum
wis
wis@@
wischen
wisdom
wise
wish
wished
wishes
wishing
wiss@@
wissen
wissen@@
wissens
wissens@@
wissenschaf@@
wissenschaft
wissenschaft@@
wissenschaften
wissenschaftler
wissenschaftlich
wissenschaftliche
wissenschaftlichen
wissenschaftlicher
wissenschafts@@
wit@@
with
with@@
withdraw
withdraw@@
withdrawal
withdrawn
within
without
witn@@
witness
witnessed
wlan
wm
wm@@
wn
wo
wo@@
wobei
woch
wöch@@
woche
[...]
